314
backbone.conv1._conv.weight 648 3c149ecb be2d6075 3e001a65 3dd4b5c2 bef8a988 3e6db9a4 3e3d4c45 be93933d 3e2d3314 3d839121 be8b78f8 3e63b95a 3e81a6e8 bf53c371 3ee81dbd 3e9c559e bf264d53 3ed098e0 3bbd69ad bd990a7e 3cdadfcc 3ce56cdd be1ffe66 3cef13a6 3da20ff0 bd900b81 3d944838 be60dfb6 be8c4d09 bd5eaa32 3ea94940 3f770ecf 3ec158c8 3f0e8912 3f954cd9 3f03f9a8 3e5ed39d 3e4f4080 3d1fb0f4 bec658ea bf61d1b4 bee7566b bf360dc7 bf8d5c26 beaafb21 3ca1a98c 3c5dd9a8 3c85e3d8 3cfa3753 bd13ae9e bd3ee228 3db2e68d 3da01130 be08fdbb 37a1611b 3c9b9228 ba11aa31 b9239ba8 3a4cb366 ba7c1530 ba8b096a ba80e07b bb1eaa0f 3a6e0195 3cdc7a95 3b153d49 3a565bee 3aafc114 3a3cabab 3a84114d 39ac3e50 3a01cfca bac27fb9 3c865829 3a8fe69a ba5da322 3b007a96 bae9b47a ba7136bc ba15ea84 bb219761 3dd8ec09 3e58ba9f 3e8675ce 3e4e0ccc 3f14b271 3eb5824b 3ec05d30 3f366bd3 3e31151c 3e49bfd1 bc822f55 be9436bb bf1ba7b9 bf966679 bf1f1a30 bf24cdd4 bf9ab216 bee8c8f5 3dd23586 bc8861a4 3dc101c8 3e30302f 3ebc0a47 3eab9c7d 3e25d026 3f007b0a 3e462005 3c2307eb bc8ee16d bd554f60 3bcca2ab 3be054b5 bd939a83 3d23aa65 3d67143f bc880609 bdc990bd be241aa7 bdd776f9 3d402d23 3e848fab 3d9b2892 3e1a4ebd 3ecabc26 bb5fc0ed 3e12f8d8 3e4eded4 3ca2a202 bdb29df2 be93a18d bda9bb90 be4973f6 bef5815a be2e0b35 3e0e5ded 3e1e9d20 3df5e2a0 bd96d9f1 be35ecbb bcf77a74 bdd47d95 be845278 be12b104 3e74dd72 3ed6934d 3dc366d2 be6bc49b bed49876 be68d765 be3fe7cd becc47e9 be397b54 3c902692 bbf95bf2 3d4a3f04 3b9542f2 bd2e7e59 3d03a311 bd0dad6e bda0df12 bd7a0831 3b808597 bd6f7a50 bcdbe6a6 be0a1045 beb5276c be39cad7 3ceb61f5 3d707018 3d9da28a 3d07372b bd6dd8b1 bd35b72a be459ef5 bf12fae7 beb9a91d 3d5c1095 3e6f1f75 3e3fb2ba 3c46e244 bd10e019 bc6041ca bd7297be be07d6c9 bd65efd7 3d2f9184 3b18ea86 3c85ce66 bedee84b be8469b0 3f13d9b2 bf702e9f bf315656 3fd8e309 bf27b512 becd2f36 3f845f8f bf5d2b50 beeadb90 3f9f73d1 c0094ebe bf8efc5c 404d4a32 bfa7ae75 bf0e3a76 4006e242 be438770 bdb9ca33 3ead1ce8 bed537ac be54dd24 3f1d2227 be62d5a8 be82075f 3f000cfb be70a1fd 3dc49506 3e6e6168 bf7e3067 3e9f1d10 3f07de38 bf644fc3 3efbfcb6 3f025086 bf00a4c3 3db5b9ef 3eb29ff0 bfc27ab9 3f15f5bd 3f87e75e bfc41f4b 3f1fcc39 3f4c1b99 bc2761f0 3d04985d 3d5cfd01 be266e71 3cd24286 3c2af5cf be14f2b9 3e34b291 bcf93444 be06e163 be0002ae 3c8c594e 3d7b6aeb bd3f9e4f 3d82055f bde238b5 bd29c17c 3d384ef8 bbe1edcb bc98d87b bce016a9 be41d3e8 be581230 3c1a8133 3e0a0f7a 3da32cd5 be62fcd5 3e1054df 3d684c9c 3db08496 bebb1da2 be229c36 3da30e54 3e42b3a5 3eebef8f bf09d569 bb239e53 3b1bbe03 bb5f85b2 3af47c14 3af420b4 3a8e47fb 3bb3889d 3aaa4674 b93a858a 39218046 bb5e5cee 3b775f5e bb03a5b2 3afb5d85 3b34d505 3b9c1aa1 3bc382f7 bbd3872a bb988f97 3ae31a46 ba27786a 3adaf7f7 bb3ef4c7 bbdefa4e b9ca5ffd 3a6954c1 bc08fa6a b989c827 3b39b32b 3a7be8f4 3a94148d b8975300 3927a378 ba1abfcf ba9db354 3b099444 b928d594 3b1bcef3 3b2b4ce7 b9bff986 bab547bb 3a1e1bc8 bac8faa6 b98393f7 3a0a0da5 391ca247 ba841f65 3a82d0bc bb4a55ab 3b01c50c ba54f771 ba259cf7 bac085bf bb047df2 3c029bc2 3c6894b8 3ceb2564 3d014556 3d5be335 3d203e84 3cc37fee 3d16f942 3d279836 3ba7cdb1 bc07080f bd82ba92 3ba6fda0 bc41fff4 bc8dd5f6 3b57962e 3ca500fa bbfdeda1 bc2840b6 bcc7f3b0 bcc462fc bc0c3749 bb92209f bd113ec5 3cba48b3 bbae4b4d 3ca17e63 bbe578a9 bc248c6a 3c6049fc 3c81a823 3c648326 3bc511e0 3bc79aa5 3c3eb505 bbbeb9ba 3cdd8336 3c3483bb bc2f8bb2 bbd729f9 bd838377 bd0f9d7a bd042146 bd8ae3aa bce335d5 bc6bf0ae bb834282 3b85c8c9 bbbb7355 3d3b310d 3d075c9a 3c9b77d7 3d810df0 3cae93a6 3e1b6fef bd6d4b0e 3cd6ca1d 3e24d99b 3dd5e3dd 3e1372a4 bbb4324c bdbe8640 beb47ae6 3d257fc3 3e9dc9ea 3ec5a248 3ef734ea 3f37cd8d 3ec7f3fe 3ed07e54 3f42699d 3ee64507 be116920 bea19629 be6a0464 bf075049 bf7b201e bf23c397 bf124072 bf00481e be1fb80c bd13c1f8 bc5fa641 bbd6d280 bb1bdd46 bbd85c5f 3cf71b55 3d585060 b9c0f039 3d049f0c bbc13650 bbe855ea bc4fd9a2 3ce75ea1 bc0eeb8e bcd12d8d 3d0f686e 3b5632a6 3c8b473e bcd71009 bd2f50ce bba1cc2b 3d193870 3ca3993b bca2ebaf 3d7e874f bcf25eb1 bc5cd6d5 3d9aae00 3e7bc559 bdb16025 be4b8e5a bf787487 bf18c9a0 bf105f65 bfa90709 bf2937cc be85f718 be0b470c 3db487de 3e37f1f9 3f4ca8e6 3effe8bc 3f0ff8bd 3f89006a 3f1ffe6d 3e8119e9 3d17e3ff 3e06b9ee 3d327d15 3c816eae 3dbb90b3 3a7caac0 3d98e5d1 3d2e17ab 3ce60a51 3decc150 3d8e92bc bd40e729 3d1c18cb bd113ab3 bcf86361 3ea4b7c9 bd2fefdc bd817509 3ce390cf be1f6142 3d4e7ac1 be6cde08 bd6f2586 3e152999 bf4a27fe 3e98b32f bd9a3c7a 3d456cd9 bd4e1142 3da586b0 3cbcf30e bd340424 3e5e230d bf257d12 3e3b1aff 3ad5bb98 3a82eaf9 baa83165 3a81e8c2 ba8c1f71 bcf5201c 3aa60bb1 39e31979 b9b56048 bb6b0368 39457a6f bbe043bb 39de7311 b8ff652a bcafa698 bb44b87e ba204bd4 bb0660d5 39f6d445 3ae23ee7 3b1ac9ab 3ad7210c b9c6e9e3 bc97acbb 3a711ddc ba031b81 3ac9cba3 3f59460d 4003612b 3fa0cba2 3e4b066d 3e106d63 3d3282f6 bf8ab4a4 c00dab0d bfa74f6c 400a82d8 4080bad3 401f342a be2ceb66 bdbe4326 3d6f36dc c0159c5d c07849ad c01124db 3eeb7401 3f70018d 3f10b2b7 bcbbad34 be021e9d bd9be927 bea9932a bf55c69e bf1136b4 bce6c948 3d0a4987 bd03fab3 bd3b3f5c 3e2ce93f 3d14b928 3d79c4a2 3e3658e3 3bd2ea37 be04c58e bb8d47df 3d223b3f bcaa0a8c 3e6c6be1 ba21379d 3e05948e 3e96eaf5 bbce2a4c 3c6d88b4 3d215124 bc371674 3c26e959 3d319836 bd4e9719 bd3a7ce5 3da73391 3c653217 3befc059 bb1f3727 3d22391f bea0ffc9 bf8557b5 bea8222a be58c8d3 bf576351 be48d44a 3aba6d79 3e10412d 3af330fb bdb4fe8b bc9210ff bcb78a46 bddf1859 37e8a6f7 3ccfe628 bd9abd9a bdd29fd8 bdbe0350 3ea0b6aa 3f883850 3e8108da 3ea4d825 3f3ed05c 3e314f61 bd2450e6 3d5861d6 3c7a6f6b bdb14d3d 3b1a8a05 3d596bdf bbdb3398 be0459e8 bc8057f9 bd59d6ab 3cef5178 bbb4919d bc3864e2 3e014ef2 3d0b808a 37e5f393 beb11e30 bd0d068a bcabb755 bc23eae4 bbb71501 3d4ddebb 3ccc363b 3ccfed66 bcd66857 bd28c0dc bc939897 beb12349 3c9b4621 bdd6192a 3e77d693 bf96fcd2 bfa2eaa3 3e4db43f 3fa67ab8 3f93705f be883286 bc2eb3a9 bd48a179 3e32a6ac bf4cf1dd bf6f05ec 3e0e4a80 3f4df839 3f8ca7ab bce4ac94 bdbe7cd1 3d9f85ed 3ed1ec07 3e591182 be6f4ed6 beaa21b1 bea5151e 3e95047d
backbone.conv1._batch_norm.weight 24 3cc68ad9 3d51e8dd 278505ed 3dd04146 3c8a548c 3d1aab13 3d29529d 3dcaf0a6 3d7c5b94 3e97d392 2938f92d 200770fd 3caff522 293104dd 3e24e746 3d197b8c 3cc093af 3da4dfce 25eb4d4d 3d443c5a 3dad1d05 3e2af94f 3d930096 3e20cee3
backbone.conv1._batch_norm.bias 24 3e823269 3c1525b6 a8dd761d 3da27529 3dae1761 3e3fe9e6 3e229205 3ee3a8b5 3d4015ee 3ee1fb07 ab905f99 a2398393 3da780aa abe26b52 3dcc86ca 3e39f737 3cd42c47 bd14e55c a68abf40 3e6762bf 3e02d7b8 3f1a289a bc4ccbd5 3d2731b8
backbone.conv1._batch_norm.running_mean 24 3d226f82 bcc135a9 bc2ee1c3 3da3db0f 3caf45b4 3e845aa0 3e8ff760 bcd0ffb1 bac73307 3e13d564 ba002ecb ba381313 bd014933 3c1de2d2 be78bae1 bc4758bd 3d8f9795 3dc94771 3c620921 3d096dc6 be40f51c 3e815973 3da9412e bd01a0d8
backbone.conv1._batch_norm.running_var 24 3d1416c4 3f0b27b6 3a9ceb6e 3f34bb76 3dbc9006 3f29ffd5 3f4af18c 3f9ed319 3eb6f28a 3e4b38d2 37ea96d5 36a6ce96 3c195c56 3ae14dc6 3f6fd39d 3ad5ce47 3f486a8e 3e1333ba 3af7e1a1 4049c20d 3eaf7830 3f3f65f4 3d850e0f 3e017629
backbone.conv1._batch_norm.num_batches_tracked 1 00000000
backbone.blaze_.0.conv_dw.0._conv.weight 600 3bc0ec73 bd853cd4 bd4a5e4e bd0cc09f 3caeac77 3d06536e 3e4f6ab4 beb267be bd946d46 bd47895e 3c91a05c bf81b48c 3fc32ee6 3db17d76 bcc7dab5 3d281e55 bd5a1241 bdcebc4e bdba7a41 bc699095 3d8b288c 3c493ba5 bda2442b 3c40e8c0 3cb58f90 bd8a35b5 3ca22ade be5f9ce4 bdaf13d2 3eaf223b 3e0c9db2 bed8b4b0 3efde66d bf50d03a 3e761700 be406e17 3dc96117 bfcb874d be591254 3f267ad7 bc76964b 3e6e1b23 3e2ffc15 3ab401b3 3ce6820a 3e134a34 bcbfa30f 3f16b5fe be001080 3d8cd691 bac230b9 ba375572 ba5d56ff baa8e912 3ac10d66 babc6ba0 3b6622c9 3b4adbe2 ba86d0bd bb2ef7a7 bb8fd4e1 3b9d6ae8 3c11d222 3b514a7d 3a285cb7 bba844e2 3ca5d90a bca96271 3bf4948e ba87d6c6 bb62dc3a 3bdce4b0 3c3550ff 3b9601c4 bada5135 bb00bac2 38844381 398c2572 3a568006 3a958afb bb243327 ba97065f 3ae78be4 bb8c7674 bb312d61 38edad6d 392818ec bae44a94 bb700830 3a689552 ba542366 bae8ddbb baba7d26 b98b2b64 3ab86c03 38cf2894 bacee2ed 3ad5264f b860f69d 3acc17dd 3dfe2b8c bd344922 bdd3461a 3cd52e3c 3ccbc718 be455686 3e45f985 be646ef5 3ce2b245 3c90f3b2 3fa7a591 bf98bcf2 bedadc4e be54a1ad bd8db8cf be6726ab be0eec26 be145812 bd810037 3c9d75d7 3acfe70b 3e6c4e61 3e2ab3e5 3d908488 3e315a75 3c097748 bd6226cd 3e1accf2 bc437f27 bccdcd54 3d89d49e bdcf8b4a 3eef5140 bdfff698 3d33e948 ba03f1be bded7463 4051f95a bd7b00d4 3d8cdaf1 bc4e4b1a 3eba6c05 c080ebb3 3cb9de4f bd13a9e4 bc6b8f78 be3095c1 3e51ba6c 3d88af7d bc3cfccf bca95ee4 3c1cf0f1 3b64cbf0 3d344b12 bd02bcdc bd05506a 3d8455e0 bda4e689 3e30b0c1 bd5e7966 bd0f26ce 3e563932 c093873a 3dd1ae69 3b88535d 3e376a0d be1f2aa0 408d7c36 be17ddd7 3d1a9824 3d61a78b be844965 3e972ae8 be33ec8f 3b8e3852 b9961f8a 3d099032 3bdefd90 3c15760c 3a0bd2a4 bd940ee8 bdaf4b55 3e5a546f 3a5e6191 bd2180ad 3d96d2e4 3e979dca bfb96a73 3dea5d41 3d5ccdae bd31fb8b bd31991b 3e01ead5 3c8cb2b6 bc840954 3b628dfb 3d0c13e2 3c7765e0 3c1c3285 3b1dcc3a 3ca16fc3 bd1533bb 3ce46fca 3c949634 baf2e5dd bb811a32 3e2fdeb0 be1802d4 be3d2db8 bd7739c1 bd01fbc3 3c95946f 3f443608 3db29965 bc1c56b2 bc8377ff 3bfd9ff8 bc54dd90 bd5942c8 bc5b573b bd0235f7 bb6f942e bbc7186f bb8c6d58 3b99842f 3a7c8ad8 ba482c1a 3934bd49 3a11fc30 ba5b5f09 ba62d0d4 b9cce0e6 ba6d054e b995eac5 3aab88d5 3a5f4e83 3b903289 3b88cad9 ba0d0ef6 3a82dfe9 3b83fa1a 39c89565 3b03d3bd 3976eafd 3b717d21 394f123a 3aafa7e4 bb00b312 ba850002 ba5a4031 b8e383dc bb05b686 3a8d6b93 39fee4b5 3b4f0736 3a530de4 3a8e993e 3a802b7a bad99dea ba9374c2 bb31c690 b975b08a bb148870 3aa6c42c baa437ac 395594ed bad81871 bb3d614e 3ab899bb b63432c4 3a3af31c ba2a3d7d bb18c809 bb40de1c ba9f7194 3acf61cb bb212cb3 3a9e2c89 ba9f9eda bb7863e8 baceaf27 bac2450f bb401c79 ba8e3ca0 bb3be2c0 b8852524 b74bf73b 39e4c03f b9ff2d20 ba34463e b767a410 b999bcf8 ba57b0c2 3af491d8 3a68294b 3ad7f9b6 3ab6fdcb ba873a0b ba6b2290 3a18e5a4 3afea4cf bb338f92 3ac6774f bae10373 b9da8928 ba38d463 b9855e7d b9292842 b9a25040 baf4917f 38bf4882 bb0e0d20 bb65ff98 3a3c8ae8 3a046c9e 3a15a943 3ab90fe2 bb90d0a9 b7bba155 bb05e17c 3a2b706d babb5783 3a71c709 3b0968db 3aab1756 3cc321e9 bc3ccf75 3d0b6906 bca3ec14 3ca09cbd 3cda18dd bd32cbc5 3bb2986a bc8cc602 3cba539d 3d4cad0d 3d84a434 be2e44a8 bcff0e83 3d0ad3cd bbf9710e bd06316c 3a1f469a 3b9e2029 ba343e58 3cc11f91 3cc53e07 3d3e61c1 3bd6e65a 3ce48230 be9a1092 3dd2cf36 bddb7e0c 3dee769a be1e1368 3e13624b 3e5d34e0 bd713ed5 bd606cbe 3d20edc9 be1c0b6b bd76f4db 3f58d582 3e06cd82 bc3fcb9b 3da08000 bc9e3d85 3e54d238 bdc7f17e 3d984b0d bd8742c2 bde63bba be1e37da bce6b8bd be2ec00f 3a3b23e7 3629440a 3ad47556 b9a070c2 3aa4140d 3b1b7c66 b9761c34 3a6d238b b9266133 babc73ee 3a88372d bb15d9c5 3a9d90bd 3b05d998 bab3328a 3b1d58d7 bb07cf74 38aa15db ba12004a bb2514a2 b91d8a95 baabe24b 3944f196 bb3e02af bac72b7d bcef6a5e 3d6a8608 3cf2f926 3cbe511d bdd66422 3c9afe81 3e04e011 3cbaaf51 3dfaa34c 383123a7 3d14abfa bd217bf9 3f0c4273 bd5383e1 bd66824c 3dc9581e 3e097f34 be0f9008 3e287319 bcb590a6 bdfd8ae3 bb6454d3 be34a72d 3db5b646 bcd96132 bc73af55 bd6e9baa bd802ccd bc4c5ca9 bcbde2d6 bd5ef94a bd60aaba bd22b19b bd505014 bd957bab bb5c85d6 3d1391a2 3f433990 3e946284 bd9991e8 bcbceff1 bd888222 bc6a30a6 bb4b862a bd8d3828 bd30e0a3 bc131179 bdae8d63 bbbc1c1a bd0209b9 bbaf5408 3a990cac bb7e6f8f 3ae8e70c bba77b0b 3a1c6b9d bbf97f5e 3ac092d7 3b019d28 3845318e 3b23b318 3c93bc0f 3c6c6881 39ae933c bb5174ed bae32ab3 3bc782c7 3b974cd7 3b24d90a ba271e63 bb6859a2 bb8ecb35 3b248d63 bb7d72af 376f5175 3c1eba5a 3c8c8dd2 bcbaf666 3ced9061 ba99d1f9 3c05baf4 3c32c3b4 bd728350 3d4939b8 bc47c861 3c0df241 3cb540c9 3e677853 bd3352dc bc530ecf bbf7c04c bdcc094d 3f849683 bcdc407b bc8f5631 3c5548f4 3c1a5d36 bc1948c9 bc4983e0 3cef1f43 3e503681 be89c8de 3edaaa1b 3c83578d beb184b7 be626974 c029caa8 3e6d35b7 3fb5bab7 3f9aa729 c02f14cc c036117d 3c1f95c7 40379bf4 402ba74f bea60180 bf8ec9b1 3f3516f8 3f9224ba bea6a467 3eb591fa bec2901b be33721b bccc94f2 3e01a037 bc93cce9 3d09d9b8 bc995b7a bd156e6b bc26e6b5 3dcbe699 bebd8425 bef55161 be1b53ab 3d2ec30d be2d757d bcae5812 bf10346d 3e21bda4 bcf72437 bc9b3905 3e061320 3fa4d1cf 3ea898ac bd5977a0 3db371b9 3c9783c2 be50a339 bd7b5153 3d1a9309 3dd6d260 3d522ce7 3d933ef0 bd55d411 3df0ed26 3c90d3af be475768 bdf4c4e8 be042350 bceed47d 3b939ed8 3e4e317d bf03ec7f bd9dea76 bc3f256d 3dda0415 bd5b6900 3cabe7fd bdcb6a12 3cb74009 3d3ff699 3cbab42e bd382fe7 bd3c82a5 3d5d7cec 3b81c9ed 3b3381a0 3929a31b 398ef07e 3a5c6deb 3b36524e 3a370abf 3ac9d191 3a1e83dd b94af81a bb6c2303 ba2636c9 b9f2c95f 3b0552ea 3a6fdd21 393f19e6 3b5a7265 3a9ae38d b98a0b59 bae73fc1 3a8e7424 b8a1dfc9 3ab811a9 3abbc7b5 b9138cd6
backbone.blaze_.0.conv_dw.0._batch_norm.weight 24 3e1df64b 3ddd3c47 a2029260 1c023da8 3e3a0d2a 3ea8cc7f 3ebe817d 3e81e489 3e463224 153ac5c3 9e1db2f8 16eb2ab5 a187b12d 2d7b86e1 3e318e7c 1d237f6c 3e735131 3e0e31fd a11c81ed 3edcebb0 3ebeca2d 3e35beb7 3dee2351 95bb3433
backbone.blaze_.0.conv_dw.0._batch_norm.bias 24 3eaeb31d 3ea42248 a524ca3f 9e5aba94 3e08da6d 3ea1a894 3e915821 3e505b49 3e59e768 9976b199 a0756195 993d1658 a3b41395 ac1ba697 3ca9189a 9f33d7c1 3de27eb3 bca5529a a38548b6 3d9eacdb 3da5cb16 bc29a960 3e698a94 98a86f18
backbone.blaze_.0.conv_dw.0._batch_norm.running_mean 24 3c6b5034 bc23f1ea 00000004 baa0a1dc bd63c7e1 bb3c8a1a bb10245c bea8f1fc 3cd88c64 3bfb222b 80000004 80000004 ba56781e 00000004 3d49b52e ba0cfcdb 3ca0e4c2 3b72e4dd 00000004 3e8405b0 bb22b12a 3c361c39 bc4ffd52 3a8d327a
backbone.blaze_.0.conv_dw.0._batch_norm.running_var 24 3a863fa2 3a5715c8 00000004 35ac1cbd 3947e47f 3b6cdb45 3b5e87c5 3c3882ca 3a6df3c2 37a44817 00000004 00000004 334a1dc0 00000004 3b4ef7c3 338a4cfd 391cebf3 388a65c3 00000004 3af07ad8 3d8dfa6b 3be2c841 39ab67a9 36041008
backbone.blaze_.0.conv_dw.0._batch_norm.num_batches_tracked 1 00000000
backbone.blaze_.0.conv_pw._conv.weight 576 3f40e065 bb8a47ba 37ac93e4 39f6771c 3d566764 3e02cbf9 3d2ea844 be1e26c2 bee03eda b9ba309f 3a3b014d bb0835eb 3a3b8b6f 3c066790 3d643561 baf02f16 bcc3ae5f 3ce82e89 ba37d34b 3d098e06 bddcf3db bd8d9d0b bc0e16e7 3b821f9f bbaeea6a bf4b974c 3a918c04 3a236d8b bdede06e 3c28bcd5 3d194d2c 3d0dea1a 3d2661c9 bb7498b6 b988f88e ba645c9c 3ab0e1bb bd2d804c be004a18 3b4cd399 bf2a6fc7 3cc11953 bba7ba18 bc474980 3c575aee bc5bce3f 3cf6b947 ba800dd7 bde1d2e8 bd34d30d bbe2e18e 3ae519a1 3c64928f bf70bfa8 3dd9d65d bd6c538f be41e8f4 ba60afb1 3ada67fc 3ae51b15 ba545067 3b96dd46 bca12ac3 38a2a49c 3b95a5be be5c3965 bb36b2cb 3e83cab3 bd5356e9 3dc80bbe bd9de314 3b49a54c bc0e10c9 3cf76e30 bb75504d 38151d52 3dcf74dc bd1afcef bce3bac4 3c8a9404 bcf8d366 b94e36ca 3a461fd4 ba60d6b7 395b736d bae27e25 bebcafde 3a4d7f6c bed1ed1b 3d48a23b 3b548545 bce23395 3c7bf06f 3c635950 be188ddf ba88b424 bf0ab8b5 bd5e0d9d ba8867c8 b92944d0 3d135352 bdbd7445 be734125 bea39466 3ed197df ba4b974b ba3cde5d 3b07d44c b765437e bbcbd031 bd42ea1f 3a32a887 bde72596 be01a49b bb74a875 be13268a 3c9a01ab bc9d61e2 3e4e123e 3a0bdcc9 3d1bea99 3d0f9fd2 bcb26f5a bb2a569e 3ea6862d bc335e40 ba853f06 bc8786bd bd4213f2 b9de04df ba40018b ba7f2c0c 39b582b5 3c68f66b 3efd372e 3b331294 3e952abf 3d21bcae 3af81c9a bd569d4e bd08f905 3cb3bfab be4ab71f 3a3373b0 3d98191e bd3adb0a bbf6cb29 b9d904ef 3d8cdf6b be325b74 bf736de2 3dbf039b 3cf7660c bad313d4 bb2216fe bafcddd8 b9d347d9 3b83f73d 3cc6beed 3ae79165 bc8a1325 bcb06208 bbbc5a4e be935053 3dac8e70 bd93abeb 3e944819 3b1dc2b7 3e3ebc9c bdb5d448 3bc29ca0 3a00e3ea bdc4ffd4 bdad533c 3d7780d7 bf18f37f 3ccbf6d8 bac110d8 3aa2cd1f 3b537cf5 b9c9201e 3927e4ff bcf5f5e3 3b316629 bce94fc0 be175a6b 3bf1d423 3ceb398b 3dca966f be0b5634 be2352fa bae8433f 3a8864be bdcf1448 baa82515 b919038c 3b4167ec 3d70e107 be490fa3 bf425096 3e5deb6a 3a2d6e32 3a2c17be 3ad96276 ba1e3355 bbf5e646 3c90711d 3a316997 3d23fc4f 3d4104ba 3a3822fd bd349292 3cee12f1 bb87bca3 bd0cf735 bb4330a2 bd413a5c 3da24258 3c237178 ba9b5eb7 bd713b69 3d28f85c 3dee25ed bcb89e31 bd07e206 3905578c bb22847d babd1cf3 baee1977 3bc0047d bce8f101 39921e48 3cd2a4f2 3e41a7b9 3c989edc 3cca2948 bd1a223b 3e005612 bf04df91 bb3ad7a8 bd05c150 bc879761 b953727f 3b241f93 bbc17fb7 bcb9cab6 bb06e445 bd8cfcfc 3cfd3a1f bad8cc41 b9b056c5 3a2bb6f2 3ab01de0 bbbfa239 3af0ef6d badcdc3a 3d027dbf bd3f7375 bb08711f be539f31 3dd7271b 3d1c50c8 bce613e8 b916a980 3e116a0c be14b4ae 3afd8e67 3aaf95da bd269d55 bcab1bbf bd461457 3e907138 bf05c0a9 bab9e43c 3a3e9c9e bb0b28a3 bab29fa2 ba0996ab bc3e34c6 3aa1f183 3c8b3248 bd50e453 3b1424e0 bd354f96 bf949e17 bc6a0266 bdf2ac5f 3a89e5ff bed1df7b 3e14edd4 38e01347 b97ff764 3d4529a6 3d7d6197 3e579f23 3ed88a6c 3e43483b bafc2f9c 39bc086b 3aef2b3f 3a8d6023 3c795a92 bd1df14c 3a0afe49 bd963e1d 3ebc0ffe 3a9e2bf4 3dbb1af2 3e113b5d 3e0315ba 3ccc98d8 3b0e5514 3d5398e7 bdbde8e0 bb8056c0 3a1a8fe7 bd557ce2 bf1acbf1 3ee86dc0 bdaa702c be06a21d ba1982a0 37346fb3 bb4d2fbc 38eef719 baeff56c 3ce4cdfb ba91fe3e 3c4d2364 be28e46a bb66ab4f 3d8c3937 3da45bea b7a15a5c 3e4983f5 bad5fb26 bb87b61a bd0b47e5 3a9f153e 3aa00c72 3deecd6b bc86f73a 3a8af9bc bd032731 3cec41b8 3b3a321c 3b38caba 3a15dd49 3ad8fa07 3d9b110b 3e640e3d ba6e2572 3dba3761 be01ba2b 3b43b085 bd92910c bd02807a be524a93 3e1cad96 3a8945fc bc4c72f1 bca9fb18 bafe361e badbf726 3d9d61d1 bf1f2f8b bf161551 bd30016e bbaa2bce ba5f8750 39e030fc 3a5d485f 3988d58f 3b0cdf0f bd097d9a 3ab8d2e5 3d016275 bc286f86 bb1abf14 3ee54878 3d317c6f bd9dd4ba 3dd9a007 bac1749c bc54d073 bc9bf662 bb855ab9 3adae4b9 bc338ab0 bcc70bfa 3dd515e8 3ea24ae0 3e857106 3aafc7fe 3ae95872 bac5e52c 3b71ea9d bbc69cad bc987280 3a850192 bdbaadee 3e2472ca bbc69638 3d27c8e7 3e2937b8 3d31efff 3dee6d77 bab0933e 3be34c1b 3cf88cbb bb39e7db bb37f783 bf0a68c5 3d78a41b 3d2f871e 3d4e5f66 3cd276c4 3a7dcb5d ba61873c 3ab73f49 39c9f028 bc805bb4 3d63a21e 3b40a3a2 bd8ef3ba be79898e bb9731b1 3cabfa43 3d1aaf59 bdab30c0 3d24d235 3a94601d 3ecbb2d9 3d83f91a 3c15460d bb107118 3cfba8cf 3d9852ad bb639779 3e87b702 be88bb5d 3962b7c2 ba878a53 3ae82655 b9504755 3a1e2252 bc701fbe 3a0c90aa bd831dd4 3d22117d bbb3baf1 3dac5880 3d99b0b3 bde8e5c2 be8cf5b1 bb580977 3e46056c bc5004b1 3bf0b7ad bb85b09b 3b3666de be081646 be814fba 3eeb4980 bf100ebf 3ae4e76f 3a15aa60 bb06adf9 b9cc568a 3ba571d6 bc362032 3a65912c bcc5c381 bb82f7af 3c0466df be1c7d5e beab531f bdd1283b be1b79ec b94aa530 3d50ba80 bd8eef5f 3c0e53f0 39bdff26 3d2619b6 bd9087d9 bf11f88e 3cd26611 3d91c283 b9fada98 3a3de3ac ba502c27 3b02fa3a 3845f792 3d8aea92 bb5eca77 3d981a4f 3cf6ad03 3b998c4a be489be9 3cb6d2f8 3ca2bff3 be37f1b6 3ae16f0e 3c530d96 bdbc09d4 3c1957a9 3a1f0eff 3d951d6f 3d33e532 3cf34b48 bcc8e9c9 bcabb1bf 3b0d009b 3b209e43 b8ad82da ba64b044 3a4bb7e2 3e1ed44d 3b051622 3ea2b31f bcb24682 b98d459d 3c2dad6c bce70267 be971c27 be14092f bb064697 bc26c786 3ce7cca7 3aea2740 39c0d436 bd3800c0 3e598e6e bd9a63af bd6761d8 bd482b1b bafe6430 3abb9233 ba239e6f 3a24ce61 3999ef7e bd2158e8 ba9dd834 bc2c0f52 bdb5682e b88ee41d bf86f877 ba02fce5 3db87022 bdc29e37 ba37e52a bd8ec9de bc9d795c 3c05d198 38cc3b75 bd33f3a7 bde0d748 bf83e123 be7dbc45 bd3d403c bb066419 3a57e0da b8a67d65 ba925e17 38d86c41 bd820c35 3a9342e5 bd4d315e be4218c6 3bec9039 3f1c396c 3882b437 3e3dfbdf bd6b0470 b9777238
backbone.blaze_.0.conv_pw._batch_norm.weight 24 3e5e38f8 3e67f57d 3e84c348 3d252a20 3d8f7cb8 3e53874e 3ea11ea0 3dc7dbfd 3e048622 3e00764c bdb29542 3e84eb97 3e1931a0 3de128a6 3c995374 3e0e6554 3db989b7 3ddd25dc 3d2f7a78 3e3c6457 3e2b2a1a 3da3f02c 3f0b99f3 3e72cbf7
backbone.blaze_.0.conv_pw._batch_norm.bias 24 3e3de9c9 3e57b90f 3e583e6e bd4e8c7d 3e136baf 3ce7ce13 3e630858 be780c7f 3e6a817c 3dfbe6ee 3d5ec1c2 3da42518 3db08d10 3e07ebaf 3d967986 3e6add18 3e61a77d 3d279a5d 3e071183 be797b1d 3e163367 bd7a4142 bd8424a0 3d094a8f
backbone.blaze_.0.conv_pw._batch_norm.running_mean 24 3e3880bc bead67c2 bec0baa7 bdec3e05 be91a193 3d8dd7e0 be8cc1a4 be1a68bc be4d5d21 bd8d8fab bd5790fa be88d407 3e37afda bd7c1290 3d103561 be9cadd2 3e41af18 bc8deb51 3e0c0919 be3f64f7 be6bfb51 3c21cea1 be1f137f becec24d
backbone.blaze_.0.conv_pw._batch_norm.running_var 24 3ca74371 3ce2569f 3dd02852 3c3c61a8 3cd129b7 3c24b76b 3d719a7b 3c7050dd 3ce0decd 3be4c09b 3b9d3a10 3e1de9c3 3c8a9d9a 3d4f9549 3b7943ff 3d6419cb 3c2732b7 3bd31ae5 3c2971b7 3d6db047 3cb74089 3bb7f296 3e051262 3d3338a4
backbone.blaze_.0.conv_pw._batch_norm.num_batches_tracked 1 00000000
backbone.blaze_.1.conv_dw.0._conv.weight 600 bb1b0887 bd79b40a 381e39b7 bc2deb66 bcff2227 bc32e3b7 3b8d450a be50c01e 3e6d65a3 3ae3a155 3c746fef 3c3665a2 bf416b52 3f3b1e78 3bd321b7 3c8df35f 3c432056 bccfde0e 3bce6495 bb77d1d0 bcfa8f86 bd5188dc bd2097e4 bda73a9b bd8df24e bd4a4c2c 39516b75 be750b82 bd9596db bd0da364 bd3d85b5 3d2fbe6e 3c092576 bd10eb6a 3de0c28d bea460f9 3e7928e0 3f4d07bc 3d8785a8 3e4249ce bdd67273 3e717f9d bdd2c17c 3cb59304 bb770075 bdca0e84 3e2a27b2 3e1c22a3 3cb016db 3dd8efae bd0d2ffe bd3ff574 bb07dc43 bdaa9f1b bd691244 3dd3de1a be726923 bf8a095d 3dc09b41 3df91c39 3d0966e6 bd42852f 3ef61960 be8950c6 3dacbe45 3d8e5a95 bc2feec0 3e15a0e7 bcbc2356 3d18631a 3cb1fc48 3bfff4c9 3cacf202 bd09ac94 3d52c6ac bce6a662 bd385f84 3dfcdcbc 3c8b042d 3d3fa6ec 3da21212 bd6e7191 3c97ab05 be0f5c0e 3ca5cb60 3dd42b12 bca84627 bee9c6d9 bb3b6635 3c9663ff bb917c84 bdf459c4 3aebfc80 bc301592 bd931e94 3a08a8d1 bd71b09a 3d9004ba 3d86d2bd 39ba06df bc098b8a bd815297 bdbba4d6 3c7a817e 3c8a2c52 3d09d571 3ac97a08 bee1984e 3ee3be17 3d9f44a2 bd0bc510 be4b2c60 bf1abe4d 3f87f7c8 bd3846ae bd43fff8 bdcfe324 be2c2b13 3dea4d75 3d0aab33 3baba003 bcc3a19d bc9c81fc 3c52e9a6 3b84fcfe bb49a405 bac04dc9 3ab8ceb9 bb162689 ba3495c5 bad1c947 3a4b1677 bb46489b baa5c959 ba6b4f19 bb0f7ddb baef5d59 b8da9021 ba665945 bb6568e9 388bf999 badf6e80 3acc2fbb b95a9530 3aa12abd 3a10f17e babaace5 3abfa33f 3a9d3bb7 ba46db40 3b1d6332 3c4cbe4a bd8abb16 3d5f9a82 bd76c99d bcdf5852 bd43d756 3b748457 bc0328ab bd8a48a5 3d4f6229 be294392 3f616988 be06b0cb 3d78af40 bd335255 3dc57141 3e263374 3d9a249a bc19413a bd9cf314 3c1078e8 3ce4de25 3c5158af bc6651c4 3d223352 3d3bb38c 3c72425d 3d333c60 bd68c6f3 bcae2334 3cd497e0 3ea3582b bdd620a0 bcd4d331 bd7e4667 be1abe5c 3f83bc3f bf20e21d bbfe4bd8 bcaea39b be048a67 3eae2fd8 bdaa1a17 3c636c3a bcb84b08 bc1b9746 bcfdb0fd bd098664 bd182134 bd61e835 3a5b3222 bde6255e 3c16304c bcb036fa bc8788fc 3cd9c041 bde497a3 3d8c56de 3c393dd7 3c072bbc 3ce1b540 3f7f4302 3c7df82f 3ca0137f bcd072a0 bdf2f3c3 be07a78a 3e0fcd42 bada5285 bd08927b 3c40a1a9 bd83ca0e bd6f2402 bcc19885 ba4ce662 ba427b2a ba89b7cf 3b0b6715 3a82d6f7 3a2d0008 3a085a7d 3ad9061a 3b46fbe2 3b414cd1 3a9b3249 b9782213 3a739cff 3a86685a 39edd39d b889b3bb b9e5f446 3a2c64ef 38ef04c8 383d5a42 ba9ca8aa baa4307b ba9784af 3af94919 bb4191c6 ba6a2ca3 b7234ef3 b97d7430 3b058a1c bb1017c7 bacbff8e bab24bf1 3ab25648 b919cdb8 3b21270b ba863aa4 ba09de21 ba8453b0 baa831cc 38c46b5b 3a15299a ba1eb522 3aad3204 ba30b707 bb203c1b 3a975a88 b9c321c0 3aad9ce3 baca4703 bae659cb bcb8061c 3d6a4117 bd162273 bd490115 bdd0f195 bd94e5fe bd3362ff 3d0fd5cf 3e512bdf 3da83317 3d005032 3e4d88e0 3ec6acf5 3edbea2e bddcfddb bc56f2fd 3dca6c85 3cee63ae bc864ad5 3bf60667 bd193f5d 3ce671fe bc69636f 3a4f1b92 3d4b3baa 3c10ef00 3bc50cfc 3e3bd7cd 3de84891 bd206f17 3da8e140 3d8e44c3 3e16701f 3d8dfc92 bd1aa288 3cb5edc6 3dfb2b33 bf66b640 3e6af0f8 bc88c929 3c9bbb26 3c4cd0a2 3d7923c4 be59b11b 3dab7109 3e0753b2 3d9e6060 3e1d7305 3dfd6a66 3dcad58e bbfe51d5 3bfd6adc 3dd96aab 3b8fe055 bcf6f3fc bd0e34fe bd0e8c38 3e9736fd 3de58daf bdbff5ab bd85942e befddd5d bf95aa69 bf0ef436 bdf4439f 3c724b9e 3ec2fbc8 3f76ebcd 3ec03819 3c3b8509 3d2f8063 bc3bed87 bd9a48cd 3d829b2d 3da8708d bd58c8f4 3baaa9ab 3d4c6980 3da13d41 bbd91ece 3d7074d4 3d20ce94 bd61b190 bd7d4fff bd6186d5 3d9552e6 bdc28cf3 bec48bee 3d276b7c 3e002923 3d34cea1 bd2f79a7 bdc93942 bd6b0806 bd68bb1b bd01e7ff bbb0a361 3e1f83f9 3c76797e 3d1d9dd6 3c7d82db bc9e311f bc08521d bcd45796 bb9c2832 3c06968e 3d348868 bed1906a 3c8aab5f 3d976876 3cb1d379 3ed86742 3f32bbc3 3ed1512b 3d3acd8d bdc8587a be309e6a be5cb3ef be36cc04 bd0e8671 bdb96837 bd198660 3d242f35 bd90f2c7 bd53479b 3d0934ca bd017d3a 3b5e0029 3d8c866f 3c77bf8a 3c2542a2 3d862c11 3d2540e7 3b5934a4 3d611fff bd4dff74 bdd6b2f9 3f0327c0 bd6e4bcf bcea533f 3be3ada7 bd766e67 3db3a544 3d86f72d bd208f8c 3cf88a64 bca33dbd 3d6522fa 3d84b24e bcb9251e bba850f3 3d90e0df 3d7aa70b bc2b787a bb965a4a 3d55ef94 3da09ac8 3d270eb0 3d8d0fbb 3e04fd8e 3d9cfc3b 3d985bbb 3d8e8bb7 3e957fda be899831 3d78153d 3d3fc183 3d453ea9 bd5062a3 3e12dfe7 3d5b3683 3d8fc896 3dcff4e3 3c9dc3ff bdd1361e bd601085 bd679275 3e17c98f ba6431fe bca5b3c2 bb210f59 3d6b1b23 3f421833 bf04e300 3ba0fcbb 3a966b4f bcbab41c beb3d8b2 3eb21453 bd04e1f6 3d0de384 3c6fb8f5 bee21165 3e157534 3c07874d 3d49856c bd243adb bd0a53f2 bd2d4b79 bd3ce94f bdba8ccb bc92cf9a 3d7399d2 3d8ac018 3d7fd02e bc9a8299 bd86d735 3e8b7f79 3e5e099b bcd02058 bd161a9e beb4308c 3e33e0d6 3ef4fcd3 be432556 3d2f3235 be6e1d57 3eaef0cb 3e4366cc bc89490c bd8c76f1 bd3fa92a 3aecd1ee bc8a7de3 bd8a69ca 3cbc9dbb bc94a072 bda21c28 bdf263a3 bd037874 3dcba728 3ed99e7d be8508f1 bef2797f bd669332 bdec4f75 bf7516b6 bd2c29ca 3f4c1d65 3daac92d bdc7dbd4 3cbed5e9 3e1e8e7b 3e35764f 3e5c0fb7 3c52c7ba bc55ba73 3d57786e 3ce8b519 3d4db762 bce9527d 3c29c43a bdb56455 3cb16a43 3d0f1e39 3b394838 3dc51f96 bea0b196 3e1ed569 3c4a850c 3d8715ca 3e9bed69 bfc9ed79 3f85eef6 3d85ded2 3cb67a60 bdb4f2db bef8da1f 3f0d3843 bce7c8d2 bc6d5390 bd58a594 3bf05624 3e4f2f1f 3d98f119 3c32fd05 bcd4a15f bdd6e118 bdea93c1 3ce021b8 3c848454 bd20925f bf08eef6 bdf953a7 3da9ae56 3b322a4f bdda88d1 beadbdd4 be0b15bc 3baf4f54 3cbc2ba3 bd30796d be1d774f bdd7f58c 3ce4eed4 3d6e05ee bd51f259 bd0e48ef bd056e66 3c890c66 3ca25a53 be0f4495 3e68aef5 3bedd7d1 3c823b0e 3dad935b 3e8a6ad2 bf41e75e be0f86ee 3e09d266 3d943253 be90568d 3f1742ed 3d1a9c97 3e0c7845 bd01d4da 3c26a310 3d9fc26d 3c84dd08 3d2b5c26 3d8f2a25 3c0d8806 3d36a9ea bb5cf659 3c2d89e0
backbone.blaze_.1.conv_dw.0._batch_norm.weight 24 3e795dd5 3e1d20b9 3e0a3d84 3e828b8f 3e9154f7 354c413b 3e0cc106 3e70be92 3e4208fb 9573b374 141d92b9 3dfb6854 3e0bfc4c 3ec4c913 3e306ecd 3eb5155e 3e656ec4 3da1aab0 3e00c2f0 3e375cb6 3e03f6b0 3e28432b 3de7246b 3e1d4b88
backbone.blaze_.1.conv_dw.0._batch_norm.bias 24 bc29a6d2 3d656b98 3f02e3dd 3e47d081 3ac195f3 b68ff119 3e3f8827 3b5ebf5c 3e6b4904 991ef2ef 988c354a 3e81e7f3 3dedcf8c bccb4199 3e0834c7 3d02179c be821709 3ce04b52 3ea9a500 3c48882b 3e27085e bcb30964 3e887303 3edfc98d
backbone.blaze_.1.conv_dw.0._batch_norm.running_mean 24 be1e0802 3e8aa3b3 be1be461 bcc12083 bbb93cd3 bb83c2c1 3e9a3d11 3dcbf430 3e283460 3b9e961d b9e0bb19 3e1294f4 3dd0421d bd0947b2 bd5c4c54 3e22a5de 3e3262be 3dbb1e69 bc498a96 3ca4f251 bd117ff4 bbc04503 be140472 3d80ad8c
backbone.blaze_.1.conv_dw.0._batch_norm.running_var 24 3d4a432d 3d16f45a 3cd13f3e 3abac7df 3c1f98c8 37446a36 3c8f86f5 3d15fa70 3c3985ac 37302ea8 347bbd33 3ba65a0f 3c6c1fd9 3cbc2e5e 3ab882b9 3cf8cb30 3b614872 3b88273a 3a99fb65 3bbdfa5a 3c8165f7 3c18d724 3c58cbd4 3d31e3cf
backbone.blaze_.1.conv_dw.0._batch_norm.num_batches_tracked 1 00000000
backbone.blaze_.1.conv_pw._conv.weight 576 3f1a0d78 3a30a4b2 3df113af 3cea3e97 bf40d680 ba5bc74b be83bc25 3d9cb727 3f209156 b9798549 3abcc891 3e25d0c0 3df16274 bbe66533 3d22ced9 bb8e2130 be3e01ec 3d2b04b2 3d0a827b bd1ad9cf 3e57e61c bdd4a7d8 bd996ca9 bdcb7c3d bc8bb19b 3e4a60f3 3de2d6ac bdf037af bdc8ccac b9f1b77d bd8f3d1e bc327bbf 3cc1197f 3a2b9377 b95248b3 3a336c48 bd809406 baad7d94 beb408fd bbbbd6c9 bd4c4a31 3dee8890 3e301c78 3bf88205 3b19e250 3e36eebc 3dd55b65 3d909c8f bdbbcf09 3dbbb7a9 be9b7325 bb02b893 bc085aac bb679a55 bf3486c0 3c3cb1e3 bde6d0ec 3aeb9944 bacbb270 bd438b9d 3db7bc47 bd241bad bc66b7a0 bd2c9e4b bc7228f5 bbb29302 3df9499f be236ebd 3dc3b850 bdf677fb 3f3c6f80 3c4e3f83 3bd8d93d 3f04625e bdea89ee bf1c8a4a bca5557f 3a60f6dd bb94238f bd3d380d 3d67bc09 3ab8c5ed ba72c44a 3d1a5b2a 3beca6e8 3b9dadcc 3f00a1ae 3cfc691c 3d045788 beaf65d9 bc0974ba 3bafb645 bcf7699e 3c8ccf93 bc7eb89e bbcdfd9d 3c94c3ad bd255a32 bf09e4eb bca759ec bbe42fdd 398da247 be383054 39e54529 3df7c5a6 ba803361 3b42753a be109b9f 3d7fae70 bd95d4b2 3d0b5c83 bd11ca0f bcdf461e 3e202096 bcc237a3 bcf52879 bed3a35b bcecdef7 3e7489bb be727e53 bd3e2a0d be3b4775 3c450087 3e7de701 bbcf73bf b976ac6c bcd40e4b bd1d6738 3d8a5afa 3a8f4d0b 3a926005 3d4de770 3d0f30cf bcffdcdc be744fd4 3c99d34d 3dcf2d2b 3d7559a7 bc84e0bb bd37aa08 3d35e4fa 3c7f54b9 3d965288 3d321160 3b97cfdb 3d742e23 3f086001 bdd2a70a be300a31 bb2714ca bd022e9f be002003 bf0ede5a baf74ecf bad3739b 3ef5823d bd95b545 3ce23337 bc8aa094 bd5bb3e2 3d98df36 bc3a7f7b 3e8be571 bd26335f 3e88f765 bdaec4a8 bf3f3380 3dcf554c be4610dc bcdc0849 bdab6593 bd575cf4 be27df81 ba377ac7 bec0c626 bea414d5 3f019881 bae91f9f 3a6e0a37 bf165e5f bd8e9a7d 3866d6a5 3bb74d0a 3d734318 be743954 3d9d9705 beceb33a bd9c05e1 3dc48f69 3db47ffe 3d81df3c bdd6f0e8 be9b438a 3cefba0c 3dfe3149 bd0688ef 3db9a5f7 398b63bb 3e9cbc48 bbe79978 3e4bc7ca 39dd7956 3ae92299 bea9fac7 bb553ae3 bd5f3401 bb9b5d04 bd27f0c3 bea16605 bd84a23b 3eaa056c be2fa976 3db224d9 3d4bafeb bf258a1b 3cc96c01 3ce28f00 3eae9884 be4689bf 3b3560b1 3db7e0cf 3a960a96 3e298c0d 3c0ac368 3a698001 badcf8ef 3af13faa bddbdb87 bd0e2846 3c809c61 bd7fbae9 3db2093e bd418fbf 3e708498 bcb2a705 3d2f4da5 3b85414c 3dbc0daa bdeccd34 bd642a66 3db59aec bd5b4a36 bdd1bc68 3d196f41 3caba3f3 bb144066 3e68039d 3d3ae242 3e54dbdf 3a86ded0 b9b12103 bc9e086f be2562ae 3f273f71 3cc5aba6 3f161601 3cfe0d8f bcbf0f02 be125c1a bd5cf4f9 bd832693 3d2f2070 3e6f6659 bd75f0be be4531d2 bdce588a 3ca9deef bd358454 beb399c9 3b2283ed be0cb576 be3fbf27 be887cf3 ba149912 bac1d1c3 3f4fe404 bc3624d5 3c7d53ea 3c9c1969 3d308a15 bd550983 3de29462 3e211716 3d3f0bfe bdf10d1a bdc90e69 3cabe7e2 3d6910c0 3cd4e1d3 be8e3f2a 3c5fe8f5 3eed1b2b 3de9ebc9 ba12326e 3e07cf1a 3dda4ce7 3dcffcfa 3ae58e22 3ae273a1 bd975fad 3e39cd86 bc3ce9e2 3eeef172 3c6f0501 be878d04 beaec91a 3bcedbe6 3dbdb879 3e306c35 3e28c7cb bdd97163 bcba2ad3 bded81d1 3caca89b 3f24d9f7 bd6d144b be2a1893 b98aed2b 3d67c48b be1421f4 3e90d1d6 390195a5 baec59f1 be0cded3 3da49f26 bdb613f2 bcb595dd 3dd82209 bd9bb556 bcc293b8 3c0c2cb5 3ba12622 bf0d7ac8 3c5d2db1 beacc411 be47da86 bcef12e8 3eefdffc 3cec0a86 beac54bc bd2410e1 ba6fed72 bca7da01 bcf30f3f 3c21c2c5 babb0947 399d7b28 3b860bd6 bc0e13b8 3bf5c084 bf247341 3d084cd7 bc122803 3edc91f5 bb8c022b bc7693b2 bd13541f bd34ca6d 3cffbe99 bd1c5277 3ca0380e bce04c2e be82c42f bcc403c5 bd9be0e9 38fb8058 3f5fcc78 be3f59c5 3e05d534 b987d637 3ad51c01 3ca7489c 3f05ff4a bf4fed71 bd1b1e84 bf600870 3b0c6e89 3d89ed5f be6d2999 bd006414 3d65e415 3cf0184b 3e427797 3e86905b 3ac79855 be97893a 3e6176cb 3e916393 bc868782 36bbba17 bdf6078c bbb5f8c5 bc0d748d ba9ed728 bafe67c4 3d071521 3c9d35eb 3cd04fa3 3ec21d68 3c8df4a1 bdb7e586 becb7f8c 3e560950 bd1b1d98 3dd01b93 bd59e6db bd82aa5e 3dae9d7e bd787eb4 bd0870ca bf00644b bd8a8205 bbf73918 bb3a2f7a 3c546fb0 bd56e48d bc07be49 b989936f ba2f05fc 3eaa2ec9 bdd410e6 bd40c7f1 3d860b48 bd963509 bdd324ef 3cf9a248 bb41daed be4cc4a5 3eafbd40 bd45d03b 3e851a0c 3e82275d 3f1e77cf bde2fb29 bd7f36ac bbb3261b 3f4c2d91 3a633cda 3ea04e03 3f6c3759 bdf603b5 ba255408 bb1e22f2 be884eee bec663c8 bd4e05cf 3c4a9526 be10afb7 be1846b0 bd605795 bde5fca2 3f435114 be1bee60 3e74ef16 3e8e652a 3c350516 3db79ef3 3bde722f bd4a360b bcb76099 3d2022e0 ba2c4849 bea03f5b be0a9714 bed40380 3afa5396 ba7eee72 3e05994a be801635 bc856cff bbe40d70 bd0da75c 3d54070a 3ca7b380 bf0b418a bd166455 bcf3269b 3d53bddf 3e873c44 bdb8486f 3c8536d9 3e0ccb80 3ec0e75c bc8851bc bdc1fe0a bb1c3069 3da4bc21 bd9214a0 bee24e16 ba21a04a 39c289d7 3ea8afe8 bcfbc0a6 3d005add bd56629f bd60524a 3d80fcbf 3d3efdd2 3e405626 bc6f8382 3e11380f bd28b300 bf03d339 3db15797 3c74cdd4 3d226903 bc7246ce bc8f4f4c bc35cedf 3b1bee03 3da4132f bcf7f284 3d71c950 3ac2d224 3a6c7e13 3b741503 bdbac392 bc681b3a ba053138 bb6d7065 3cce3c52 bd78c199 bb50299a 3c3194b2 3c017e23 be29a99b 3d8b9075 3ccc66ca bb280aa7 3da3c2fd 3e7041ef 3d7c7fc4 bbc75a4b 3b1c7426 be693491 3d81639f bdd3b391 bb1d4d34 396c4752 bda5bd3f bcffa78d 3d8e1432 3b883bb0 be30b12c bd42344c bd6c713d 3d44ff47 bd44685b 3e315e56 3d2eda18 3e29d088 bede2480 be3f24b5 bd7c103f bf565b5d bd9d9c17 be466b09 397506b9 3f024c61 be9d39bc bdb423db 3a310573 b9c598e6 3aa53626 3db1d19d 3e4510e8 ba969b14 be635657 3dc16588 bd63e135 be260440 be429d91 3dfa1ef2 be189be4 bce913c8 befe3382
backbone.blaze_.1.conv_pw._batch_norm.weight 24 3e8e900d 3dc81f3e 3e455132 3e669d07 3ee04e1f 3dc53d5b 3e93ea27 3e45ed56 3e6011fb 3da66b4e 3e1bcf9d 3e8f0ca4 3e3f57cd 3eb638b0 3e8ae924 3e9b0206 3e4637be 3eb112c2 3e853cad 3edb2542 3e39cdca 3cbff00a 3eb6bfcb 3e8143e1
backbone.blaze_.1.conv_pw._batch_norm.bias 24 bed789e8 3d69a57b 3e939a65 3ec3b014 beaac27e bb3c6ea6 3e257280 bdac6148 3d62ff86 bdc99bde 3e8373ec 3cc553bd 3e8f8c28 3d906493 3ea9ad3c 3e96f4fc 3e5dce11 bbe7e849 3e695549 bdcbde51 3dc2a935 bf077712 bce5950a 3e9ab948
backbone.blaze_.1.conv_pw._batch_norm.running_mean 24 3e450f74 3dbda783 bd9f0893 bdaf0f50 bedf32a4 3da29e50 3e3ade8f beb272d1 3c07d3bd bde3ccac 3ddb6ed0 3e11c0ef 3e57aa5d 3da1c785 be00a19e 3da74705 3e91b142 3c9aacb0 3d0773a2 beb2f121 3e233c76 3d090cae bd86a636 bf2d5b5a
backbone.blaze_.1.conv_pw._batch_norm.running_var 24 3d22c6b6 3b705741 3cbe34d1 3c95f487 3c691c03 3b4af321 3d0668d4 3cc5269d 3cb2216a 3b7ee1d5 3d626307 3cf84b82 3c249c66 3cad428a 3c2f9fde 3de03ffa 3be64eb5 3c461884 3da99ebb 3cb9cfed 3c8dcbc0 39f3748b 3c0e4ae8 3d13cebd
backbone.blaze_.1.conv_pw._batch_norm.num_batches_tracked 1 00000000
backbone.blaze_.2.conv_dw.0._conv.weight 600 3c8de9b3 3c9faa52 bb94f3d5 3bbec0eb 3c443709 3d054167 3b46c49d bd74eefe bcb88098 3c03157e 3d39f757 bd7d3bde bdee19c6 bdbcbcf0 bd3e4429 3cee2c6f bdb2f6bf be432e95 be2ccb24 bd9cd8f7 3c9603d6 bd08105a be2036ef be0354a2 bce10907 3ca09955 bc1ddcbc bdcad8df bdd83b92 bd9af902 bbbbb5a6 bd462160 3cec5945 3d5caaea bc83f111 bd5b6184 3c37e37b 3e235a6a 3e3290ea 3db4a44e bd73abfa 3d32f3db 3e082f11 3d8efe15 3d938fad bd9ce0af bb31d08e 3d424e68 3caf6e50 b9c2395a b9ba09f9 3d3ca5de bcbaaa72 bd5859b7 3c7b69d0 3d3fad95 bd8e7d14 be9dfebc be7c5d60 bd2fc308 3d09406b be05fd3c bea2b741 be9870c2 bded6e06 bcabdd3a bd2b81e2 bd6ac815 bde37259 bd7e077f bd8d5308 3c6e2d7e 3db34310 3ca98a27 bc1d4e9d 3c00d76a bc5ec18e bcab31c1 bc37e89f bcc9e2f2 3ccf7ca4 3d3c2ddf 3d5c6ecd 3dadff94 3cc4c06a 3c1fa9af 3d2f55ab 3db0e809 3db9df6c 3cd92711 bcbff4a6 3d34f7dd 3d928c5a 3dfb88e5 3cfcbd31 bc8ce0c8 3d31705b 3de488aa 3de7095f 3d7d5299 bcc36eab bd8644bc be0a0283 bd7e7a56 3c3003f6 bd8f1e0b be453d69 be3481fe 3cc89aa0 3d9f3fb5 bdc390ab bdeead0b 3d456b0d 3e2e81b9 3c90a93b 3c263c3d 3db44b63 3e2846c0 bd825fb0 be1dd287 3d196ef4 3d788985 bd209bc1 be27fe6f bded51c4 bba2956b 3c9c849f 3d9c12ae 3d9a54b4 3c943b2e 3bcce586 bc324a5e bcd8af91 bc81ac69 3c6c95b8 3d5a0fea bcf4c2ee bde7487e bddc116e bd495a87 3d84e3f6 bd445b7d be027003 be094bb4 bda20fbc 3d894644 3c0a050c bd420a6f bce50d27 bc7c2a8f bb98ae01 bd58a77e bc5726b2 3da32a83 3da315ca bdae2647 bda94652 3d252ce4 3e70fb77 3e8b409b bd57ecea b9d4d17d bec70e55 bedee1d2 3e54a0b4 3c289041 3e61fe56 beac6eb9 bed15db8 3d6be6bb 3d24c0dd 3e5ee1e9 3e61c53a 3cc1a353 3d1220d2 bd13b1d9 bdb1ebc1 bd80d5fa bca84ccf bc80b73b 3be47ee1 3d8e29ab 3ddd7061 3d8d4665 3c79fc90 3da1b2f0 3e8ebcc2 3e9e35b2 3e25614c 3ccbe35c 3d12b9e9 3e425bc1 3e65773f 3e20ca08 3d227a7b bd8ef4fc bcbe22be 3d1e9256 3d9c9aad 3bf01eef 3d2872bd 3e0a6e36 bcdafcfc be330ec5 bdd7a680 3db17df3 3e34f3f2 bd7ec073 be39f649 bd657d34 3db18f5a 3e0a69b7 bea8a220 be72fbd2 3e28b70a 3cb58af3 bbe0265e be9fba60 bdb36658 3e9f2f0c bd9a8478 be308402 3cbf3499 3eac2dd5 3e22256b 3cc8b71a 3d6237aa 3db6ed7d 3cbbe973 3b8e1ae3 3c25d45f 3d46f80c 3d41f96b 3d1b9301 bc60f618 3ca1b34e 3c0557ec bc764b9d 3ced38e8 3c2658cd 3c565a2a bd8e5259 bd52887c bd5b73a4 3c326cd1 3acb1503 bdc0d230 bda66469 bda865f9 bd727818 bd0e632d bc6c2038 bd551928 bde0cc80 bdcf1d86 3c8fed60 bd9305c7 bdeb39b8 be0b7e44 bdcb7ded 3d57c04b bda3b4a3 be027a9c bd95c04a bd57a5d7 3b33b89a bd25283d bdac4321 be01f7ce bdd8527f bcc4ff7a bbda8596 bb834e28 bd9341d1 bde720b6 bab45393 baa03d32 bd23bded bd1e25cd bcc1a9ec 3c440619 3d82954d 3da27990 3da4414a 3d0c4f31 3cbc0dca 3e11bc93 3e903552 3e658e6c 3e055279 3cecbff6 3dbdf1a9 3e42b204 3e40b60c 3dda175f 3c90e495 3c8eb5f5 3ad50787 3cca1195 bd38e7d9 3d1fc932 3ca0f8d4 be1e9239 be74a205 bd7efe26 3d1bf7ec 3da46bc1 be1e36bd becdd92d be57f305 bc53ed4c 3dfd3c9d bd08c3bd bebe6f38 be95bf2e 3e009954 3e93aee8 3e945373 3c992415 be071136 3dae6a5a 3e3cb607 3ea0d765 3e6582fc 3cf8419f bbfcedcc 3b54cb01 bd525a23 bd9bf517 be020fae bd232cc1 bd940b71 be055358 bcc2173b 3d926b46 be658abc be17b9a0 3d5bb2c1 3e56ef46 3e600d97 be06d1a0 bb7b5d8c 3e564050 3e79f958 3dfaac6a bcf55143 3d834f48 3e364171 3e012e88 bd9d177d bcbcb684 bdb6b633 be3a3a99 bde1e592 3c4a4f0b 3c8ed0a1 bd126f10 be71f4ff bea173fe bda0a1d3 3d5287c4 3e1db51d 3c555669 bea60965 bea322dc 3e0b1b8c 3e9848f9 3eb4ccf8 3d96009d be839626 3dfc052d 3e349ccd 3ea08fa9 3e859271 bd2c95ce 3a64f053 3d4d6868 3d8bbe0c 3dcc05ad 3da1cab8 bd00ce44 3e01a9e1 3e927721 3e9edd7f 3e0eec12 bd8b1163 3dd47579 3ea9a880 3ea9752b 3df8a420 bc9652a7 3d0ccc97 3dff671d 3e126dde 3d29a4ae 3cebde79 3cbb79e6 3b9c0af0 bbba67b1 bc548a8f bd4c4f16 bdb4d3ac be0fa505 bdb0361f 3d9c70b3 bdb22322 be323e24 be402eb0 3d50a81d 3e764b39 be2c79d7 be87910a be03a7f1 3e6c6f4b 3e9982cd be211ce6 be587460 3c167e10 3eb0ac36 3e86787e bdabfd45 bda0120d 3d61185c 3e45def9 3df41cde b9c1ec11 39ec2d48 bb41e32b baf2a452 ba42ea37 ba862234 3a139245 bb294e37 b962b2fa bb8ce377 b9a54da6 baf0987a ba491442 3a838706 3aeb2925 b8c24b91 bafcc284 baf59288 ba33e621 ba93c8d2 3a2078c0 3a2cdc11 3a9307ff 3b1c7230 ba8ac5b3 3c86b41a 3d193eac 3d916e1c 3d390fbd 3d3ad841 bd44d2da bd8fb303 bdd2c299 bdb21820 bceb6ced 3b982e7b be57a106 bec5df83 beb65df0 bdeaa368 3d3b6fbb be3a51cb bececb5d bea39926 bde6d741 3ce6df9b 3c2d465b bdafcbf1 bdb4e76f 3d116237 baff73b9 bd895862 bdf5a238 bdbecf82 bd788301 bd48a38b be0353af be037e3b 3d37c418 3d2fd93d be072502 be4085f2 3c9a9812 3e6c86d9 3e762590 be09fa69 bdb8e66b 3de8a3c9 3e7c8f1a 3e68e4b0 bdc8aa67 bd3e0d5a 3dbac593 3dff1e4f 3bc794f7 3c3310ca 3e06a2d6 bd7d0292 be4cec9e bd56289e 3dd71ae7 3e4a8d68 bdd3b8f4 bea7ad5e bdcc3e83 3e0fd823 3ea675b2 3e6ab279 be485dd9 be8e8218 bd7d6349 3e16cd24 3ec1eaf0 3dffd081 be6da591 be67ab4d bd93c0b6 3e866b51 3df534cb be0a3b72 bcb63a99 bc012377 3d2d79c6 3d4c4572 3cd851c4 3b7f1ef6 ba46d2b6 3cae1683 3cf70038 3bce22aa 3d57b996 3c6e93fc bd948037 bdf166ea bbfb04fd 3db29d2a 3ceb1b9d be3379f5 be5e6bdd bcd87e90 3d0632f1 3bfd1a9d bd2f5497 bd6beb77 bc81e99e 3b045750 3964c2ee b9e5faa1 3a613676 3b102104 bb3ccbb7 baa4d6a2 3b3244eb b9f77070 baabfa07 3b09a813 3ab4b623 39aec981 3b5237e4 baaa137f b8c6e866 b9998448 bac16579 388d26d2 3a0302c6 bb6f3852 b9b46090 3ae7ff5e bb14e7b3 ba9427de 3cb18eeb 3c3e50f2 bb1338b0 3c10e235 3c718c7f 3d24a901 bca07d49 bddb6584 bdbc9aef 3c5fe232 3d74af18 bdb0e621 be90eb99 be8a52c0 bda85f06 3d39efee bd873eae be872d8b be95c8a5 bdea81ca 3bf4ebe1 bc46339c bdd3a0a5 bde429fc bd190648
backbone.blaze_.2.conv_dw.0._batch_norm.weight 24 3e301588 3dcc5759 3e64556b 3df97895 3dd49431 3db2b037 3e651568 3e1bf005 3e593ea5 be8495eb 3ea1519c 3e337f00 3e3e1d69 3e3b3b75 3e249aa2 3e06c95b 3e1ee0bd 16759bf1 3e833ff4 3e42adba 3e4aa8d5 3e2f7d19 9cf40aa6 3e08e5c3
backbone.blaze_.2.conv_dw.0._batch_norm.bias 24 3e86cba8 3d3a4217 3ec4fb3c 3d497634 3eee6baf 3e85f205 bc86341e 3e3a2558 3b8ca06b 3c66d11c 3db1178b 3d63dcd0 3d09ccea 3bf0ed5f bb9a0a6e 3f099756 bc172b6e 990df30b 3ee34175 3c39d38f 3c4d0e28 3e959862 9fad764b 3ebadacc
backbone.blaze_.2.conv_dw.0._batch_norm.running_mean 24 bd9b256a 3df38a55 bf693b41 3edacee5 bd4a369a bdc8e844 bd9bd6f2 3e9209f7 bd6da9bf bd304163 befb6d49 3eb34a75 bdb85f82 3dc868ae bc88a5ba 3fd4de6d bc24ff7d bb22b77b bf4edda5 3b838fa7 3d508e4e bcdfc026 3847cd5c bf3d2933
backbone.blaze_.2.conv_dw.0._batch_norm.running_var 24 3c5a1c26 3c1f25ee 3dc4aa80 3d9dd105 3c3a29f7 3c36139e 3e09ffd9 3cd55173 3d93447e 3b869404 3d2955e1 3d2a3137 3d3665ac 3d3bf1a6 3d70672b 3dce529f 3ca9f371 369082db 3e6d7ea1 3d0124cc 3d9fbfea 3b48fc82 35b9b865 3d175566
backbone.blaze_.2.conv_dw.0._batch_norm.num_batches_tracked 1 00000000
backbone.blaze_.2.conv_pw._conv.weight 1152 3cee373e 3ca94bdf bb8a8401 3ea1d42d 3b00b3ce 3eb96a62 3bde039f bc03fff9 bc9fac61 bd4c62d8 bc7a5a83 bcebbe61 3aaace70 bc9d9981 bb6fb81d 3b92f618 3ca78641 3abff111 3d3bf7dc 3c47e4cc bc7e4bda be781f75 3b1a2252 3cb7ab84 bd93810a be0ac4af bec8a183 bdc65560 bcf70881 3d3f9364 3d569ff2 be9f03a4 3d0a85b4 3d8ccbb6 bd0d2a44 3ee17fd0 3cc4efcb bd956b2f be0c9e8c bd65f637 3ebd9290 3b2767c1 3d1321ba 3df0013c bc90fe99 3d4a757b badbb18a 3d547f90 3d0b0165 3daa25fb bd0a7234 bd598d09 bc877b03 3da18215 3d675b64 3eae8a15 bd422333 bda5ed8e 3c67c1c2 bea4b071 3d245926 bdae59e4 3da8809d bd3edf28 3d09fd88 ba4845a1 bdc3cf46 3d7469c9 bd5e4c8f 3d7a4386 3ba40ea0 bd4de479 3d428e3d bd0a6d70 3c666f19 bc9d6921 3d175c83 3d0817fd 3c630e7f 3f24cba8 bc81290b 3b869215 3c487b63 bf53f8e4 bd33a81b 3db61e00 bdfeec22 3d55e77b 3cdc7833 bac7aecc bde2c428 bd691d82 3c2e2180 bbf39ade 3ab84eb2 3dc1e7d1 bdf471b0 3aaf96af 3eb0876a 3745d153 3cb2d1c0 be1ca24b 3d073108 be649344 bd71e9c5 bd7b8d8b 3d95db4c 3d752fa8 3ee81bdf bd381344 be5dcf9b 3d89f814 bd4dcff2 3a2b2683 3c9010ef bcc3fcf3 3d74a51f 3d22e7d3 ba057a83 3b6edf18 be097706 3dd0dd84 3f14f2c4 bd8603f7 3dbcce34 bd040106 3d843696 be3cc3b3 3c00df12 bd3c413d 3e3d9711 bdc8ec7a 3dda0e37 3cffac24 3d7a029a 3e04bb0b ba2f20b8 ba92481e 3d2522b7 3d8b52d3 3e132a17 bd1423b9 badb48dd be0ce312 3dcf0720 bb084547 3ec7082d bce479bd bd450433 3bdc55b7 3cb8981f 3a9120da bc2c668f 3dadad08 bd02b8ad bde5ce9d be3ff45b 3d9f9cc5 3e0d6223 be4cc46e be8f3e88 3885ed64 bd9b4513 bbde38a3 bd6fd922 3dce243e ba29f9d2 be7b9f03 3cbe947b bbbcada5 bede5c62 bcb43b3f 3ce6df3f ba783e8c 3d886acd 3ef7be8b bd989025 3c4e6465 3ba4efbe be7bab13 3dce27d0 3d3f6d8f 3cd9711d 3e1de98e bd9823d2 ba5bc28c bdd42e76 3c3463b8 3e16b0f4 bd286916 3af472da 3e0df4c7 bd77c626 3cf1aabf bea18039 bd4b20b3 bc1a3ef4 3bbd5c89 3dd3efbb 3dea37d4 3bed8d08 bb8fc9ba bde07e03 bda37950 3db1b67c bdcdc555 bd2138cb 3dc7b6ed 3ba7615f bad7a488 3d8502fd 3cd58d9b 3cb1bd02 3c7a01eb bb3244ff 3da9a475 be201cf9 3cc5f0de 3c2f6314 be4137b3 3d6d12cf 3d90138f be80c2c7 3dc66bb0 be85a7b7 be2257f7 3e1e5adf bc078e79 3e107a7e be74e030 3c9e849b be1901bc 3cfc86a9 3a8be852 be8faa4e 3c89eef3 be88f193 3a08767c bb024da2 3de85644 bd623846 3c5ff081 3e05e731 3e31b474 3dbe26a4 bd9c5379 3d59b32f be146b4c bb4cdb78 bd1e5c48 3dbf8fde bd2298c3 bd51e3d1 3cea1f7d 3dc49a4a 3eb95330 bc1673f1 3aedfc1a 3e5ed05e 3bad4441 3e047cd5 3e6a1e95 b994c10e 3d06edfc 3e02db40 3e15d1dd 3e85877d bd3711be 3c8731cf 3d7290f8 bde8a3ce 3ea6b371 bdf84c06 3cff8257 3d98c1f6 bedf1eb2 3e940b79 3d2e308c be41e4f6 3dc779bf bea46727 3a6e9dbf bdae2bf6 be163ff4 bd42bdfb be148b55 3ae73495 bd92f0d0 3dc9e190 3d410c9d bd48f6c5 3cc6fdea 3e0f465f bdd4fd9f bdf46d6f bd3e9ad7 3d7c1ed6 ba66fe88 be46f4d9 bda103e6 be4bd8e3 3dd51492 be005e66 bef23869 3ca12a1d b99b4217 3ee2791b 3e1607a1 be6e1943 3c12f785 baae7f51 be8731a0 bedf9b18 be2d9ced 3d715010 bddb36d6 bc3a8301 bd996a89 bded5007 be854d1b bddd49cc 3d92cb6d 3e0f543a be57b420 3d2ee36e bea1cb2f 3da0c9fd 3dc6cae0 3d0c7433 3a1a51b9 3e8d3d4a be3e6818 bed91817 3d882bd1 3a6885bc 3d06736d be7deffb be26f749 3d9d2dea 3d2032e2 bc6fcd82 3d8582c5 3d8abdeb bda16538 3cb3a99c bc888f98 bdc1ef56 bdf50fdb 3aca970d bdaa4339 bd90c6a9 be99331d 3bfee51a 3afbf02b bef31d46 bc4e4ed9 3d5298d4 bd4dd11b 3a291d4c bde6ae53 3da6f646 3d947569 bd753aa1 bd400c7e bdaf78cb bd1d1cdc be00d0f3 3e28ef37 3eaed98f 3d0f8f0a 3ea0a7cc 3e4b1dd5 bde77c34 3e6dce52 bddc1915 3f1a6ede bd48898d ba2a240b 3ea41d9f 3e5dd979 bd8bd121 bb6df55e 3b8940dd 3c63f0b0 bc85e1e1 3d953dbb 3e4b89aa bd25a96e be0f6d4d 3d73ee33 bd48b27b 3e77ff95 bd9fa1da 3a9735fa 3d3b0538 be9a2dae bdcb51b1 3dbe7c16 bd54ed3e 3e03f39f 3e2cf07d b92f6694 bdd4376c 3d9d9049 bd984fd0 3d990383 ba1439ae bd903cc8 bd3015d7 3d27d3a1 bec38315 bc9c1a02 be0cafbd 3c19886b bdc99cc4 bd430dd8 3d554c47 bda606fb bd9adb2d be363809 3e44bb44 3d54c67c bd9e9ff7 bde99332 bacdc82d ba6e5255 bbf07fbb bda37843 3d3d72c0 bcb41eca 3aeba594 3d4c3d85 be368f00 3e7c1933 3e64fac1 3ee76f70 3db9fddf 3d08bf40 be8fb083 bc390738 bdd47b19 be0c2673 be814738 3dc1734e bca13d52 bd5e21ee bdb7d2f1 be64a201 3caacca2 bb7a6119 bddfdd84 bd6a0846 be0488d2 be18585d 3aef1bd1 3c3e654b bc7ccc36 bee6f018 3c11a8ea bd0350d2 bd349d07 3eb14126 bbd20394 3c919e01 b995a211 bd2e45c0 38acaf02 3d026bfe bc9627f7 3d034e10 bd51f25c bd05a484 3d2d6039 3ac02fee 3b91e506 3c4a1647 3bd613ff bf1dadde 3b025f4c 39c40dba be6ee4a7 3dd0ad98 3e2b9011 3d424a5d bd56f49a 3d30388e be1f07d9 3d13f397 3c97a34e 3c928e6a 3f1a279d 3e36c9ce 3cb05252 bd86d562 bdb267b7 3f3d6713 3da130ba b8fa3b80 bf3e28ac 3df27d53 3dcfd7c9 bd82fc73 bb1299e4 3ee99e50 3afe8f78 3e93a4e7 bde53465 3ead8f08 bc4215f4 3e8c1987 bcb07a7e 3d2a23a3 3c24278b bd448ee6 3cda80dc 3cd4481e 3d3cc3d7 bd0896d7 3d017eab 3c9b9631 3c88b8b5 bb8963e2 bc8b5124 bc48cd00 bb621af3 3ea219c8 bb11b31f bd59c234 bd4bd48d bcf13807 bebab13d bd9879cc 3d35404c bb8a0a0e 3d1f678e bed7443d 3d7e383f 3bd03406 3d9c28b8 3f0e04ce 3b1e33ab 3db7cbcb 3c804e68 3d485d77 be1d8633 3a4b8cf7 3d10adba be7c6dea bde687a3 3d3dc65a 3a748e50 be1d602b 3e785731 3df1df07 3e3ea526 bdedec7e 3d6443f8 3d24e968 bceaefd8 3f4570b9 bbbd71eb 3cc3f978 3d260a27 3f1851ba 3e14db81 3cd0e6aa 3d70f43b bdad998e 3dfc7489 b9dd3552 3e47b0a6 3ddf02e8 bbadf78b 3d2ff192 baebe992 bea0c9f7 3ec078e4 3dfa8e24 3e032793 3dcc8403 3e28e94f bdafe7a9 3dd6f775 3db032e0 3e967ab9 bc0cbbd4 be366017 3eb3addd be6acb58 befca9b6 3e1cec46 be5d3aed 3d98b46b bab10cb4 bea68fce 3e584570 bed48eaa 3d7d2166 39920a64 3e458f4b bd1b4289 bd614a4e 3c86011a bcd7e21c bda4df32 3c86d2b8 bc95c246 bc5abf9f 3cdeda30 3cd97d93 bd98a659 3e200162 3dd261db 3d021d68 3d80dab1 be183943 3de64bad bb12926e bdbfe1d3 3d4a41db 3d1111e9 3e7a008c 3aa6bec1 bd0486e6 bc4333b8 3e323043 bd6b0047 3f325dcd 3cc6fc37 bf033501 bc1e1576 bd8ea787 3a250267 bd22ab1b bd2326c5 3c058a44 bd227d96 bcea9ea2 3d07683c bdd7984d 3bf48347 3a382d43 bd4651bb bc4ada58 bcd64e7c bd5e0ab0 394f82d3 bc529d07 bd8d36ca 3dc1b350 be43a920 3e295b62 3db0d644 bcc12531 3d896d17 3ddc35b4 3bc61f35 3cee3d44 bda654d3 3e4ce6a6 bca0ef72 3e0f2f4a 3de3e228 3dbc2624 be779d63 ba520e1d 3dab228a 3c43cbd4 be6bd7de be2b5bda 3997dcd1 3d8b6fea bee8eb76 3e38213c be76b0d0 3e7fd944 be10df2f bd8c8267 3ec14deb bebee8b9 3e904728 be1e666c 3e2e9d26 bd856f80 be9ceb8c bd77e9a9 bda251e8 3dab7ad4 be8f999f b8037f00 be18bafe be54f214 bdeb1e16 3d5613ec bb0430a9 bde666fb bdfc0a04 bbacd0d9 3e88e6f9 bccf0d7c bc7f9185 3d5a1692 3dc45ede be5ec25a bce5d390 bd3c5503 ba871f01 3ec50fea bf0675dc 3bc2047f 3ee718b4 3cd7cccf 3e099b87 382997bb 3ce9f49c 3b72d48f 3de398b0 3d9dbf99 3b0ffc09 bd29380d bd9d9b41 bd931379 bd79173f bcf0c62d bdbbf218 3d0974c9 ba553648 be258eb9 3f1dea9d bbe99137 3e86952a be7c43b7 bdc180d7 3ef4a922 bca81fbf 3db0865e 3bce87a9 3a1f3d69 3ddd92f9 3ee3e16e 3d150da0 bcca596e 3a959cf3 bce3e1db 3b831814 be941218 3e2818d3 3e0ebb1a bd7f30d4 bdd1ddf0 3d6640a5 bdc3cb28 bd9574a0 bdfc2759 3e0264be be2f1199 3e1d930b bdd9256f bd0348a8 3c0e1d00 3e1589f9 3a25a98e 3df266aa 3d4ad60d be4a4341 bf3e1cef 38fbdef6 bd1ff25a bed9784a 3e8d3143 b8696720 be21d902 bd6457e8 bd23ee0b bc5d330e be6432ee 3d0c1e96 3bbdbc71 3e2535c1 be4b7606 bd84e4b6 bdb9a0fc bcf6929f 3ef683dc bd9973f7 3aa67467 3edf32ee 3db44e4b bdefd578 3c878d26 ba9c83a4 3b5ece4d 3ce489b6 3da7cdb2 3cc32520 3e719b5d bd07681a bd183c66 3d189331 bcbee824 bace0237 bde0500c 3e7387df bd99e3e8 3dcaf955 bde252a0 3e01060a 3e713e11 bd6970d1 ba857c13 3e439db2 bddc5eb9 3cd0a950 be29f268 b9a26448 3e33df25 bd8f0fce 3d299a24 3de75186 bc150e0a bc874230 bcc4cc38 bd9403e4 3e5c7513 be043b65 bca3546a bd837671 bdaa3981 bcd82097 3dafc146 bd29eff9 be51e00d bbffe5aa 3b59839d 3f33b101 bd99c058 bc8bb278 bb79e9d3 ba779bd2 beb87374 bd351700 bd85a526 bef70524 bd39f573 bd0a841d 3cdd7a58 bddcc0a7 bdc232d0 3da7dca3 3d26fd18 be18025a bd103dba be058678 3d435f6d 3e6ddab6 bd6596c5 be62ddb9 38ced50f 3d81653e be2809e4 3deef728 3cbcff60 39227283 3bcfe7e1 bdf35e04 3c7d8177 3e0548a9 bee971a1 bd375932 3e6e2073 3d635b63 3d3c5930 bcb93eba 3ca7abbb be9c3d28 3e1ba5f8 3d4af60d 3d739c48 3dce19d9 bf017232 3c2b8386 3abd2dd1 bea3288f 3dba62c0 bccc7b2c 3e90c372 39574b86 be2eb07e 3d5a45db 3d0ab80f ba4d07fe be431628 be1dabc4 bd133f49 bd91d3bb 3d56c545 bccaa014 3d3407b9 3ec1c57c 3d4855e7 bb4a2742 bd1e0ccb bd824249 3f00cb26 3d34f2e8 3b0d3962 bdcb1bdb 3d85e649 bd6372b8 bceb8008 3aa0846a 3e954680 bda55ff5 3e0abed6 3db1dc42 3e895d37 3d02d94f be9b71d1 3d846704 bcb9b0e9 3d6fb793 bca6fb88 bdeae218 bd6ceafb bd99acba 3d87ec91 bcaba24d bdc2f8bf bd685c13 b94049d2 bd503f20 bcc46811 bc678492 bd6ed6ec 399e986b bdcf0b20 3d0f0600 ba668f70 bceabdc1 bd96991c b9d71335 bb05ba2a be7f73ac bdb0c2ae 3db712c8 3bddbc98 3d5ac93b bd7b78cc be1d0fa8 3e5ec1a6 be7c5ef8 bd332942 3e2b0420 3b2bbfec bbadbfad 3e97e231 bccc3d0c bcd098a6 3ad01778 bd59d6a0 3e8625a5 3dead6d2 3c0f86af 3ddb418e 3db5f446 be2d43a3 3b55d48c 3e137d50 3913aea2 bcdcea82 3de9549d 3db7f121 bcb2b83f bc1040ac 3b51c8c2 3de0ed26 bcc4143d 3a5d7d13 3e4f5358 3cbbcd5f bd76b9e4 be3718d0 3abc5508 3c78cd8b 3d477e10 bcde4eb1 3d8d5fc0 bcc669c7 3d217904 bcefc986 3dce3376 bc22438a 3cf26a8b 3dbd0e41 be9d2649 be1bb5fd 3d8f69a2 bca73e05 bbee9d28 bedde39d be36a1f1 3b1a4207 3f563cdf 3cf606a7 bdbe7a45 be062754 3a682536 bef32dde 3d819bb1 bc15c1c2 3e1427e7 bd7dbb33 be3f13e3 3c9c1463 3e6503ea 3da2a27b be415c09 3d30296e bf044369 3c969421 3b732567 bdaf872c 3e151265 bf0fa080 bdb4da1e 39a5cee6 3f2ba8b4 bdc95cd4 3d53f2af 3dc9e334 baddc14b bf0b1742 3dd18f02 3d80af65 bbde4ff7 bdc0e03d be765a71 3c58f134 be019d1c 3d00e338 be7546a6 3cc55bd6 be8758b3 3ec7df82 3dd8c2ce bd5b98f5 3e2e2ea7 3d25b486 bcad5423 ba4857e8 bf367963 be947548 bed1f12c 3dbcb8a6 3a09d0a4 3d9471de bb99a197 3bb94772 bcbcaf49 bc25286c bd1a8180 be0310f1 3f3a22bf bda3f388 bab95e0a 3c80b7d2 3e560bd0 bd9719b0 3dd2b056 bdec24cf 3dafa79d 3d8d03e7 bc8dd4a0 38fe40de bc1b322c be0c445a 3e9c41a0 bd1265e3 b702d86f 3da9359d 3d22bfe5 bdc28906 3e00a511 bd366e9c 3bc9bd86 bda68fdc bcbc55c5 3e0ce1c0 3cc79130 3d2cbc9c bebc9554 3e6fbbc7 bc2149aa 3cf1b898 bd0a9044 becc3d7f bb533a6d b8d2c993 bec2a9f0 bc81379a 3dd37123 3def737d ba9b58c9 be11e7e4 bc8bd837 3d9436d1 3e9c66b6 3d03b0fa 3cc52ea0 bd6b3622 bd06529a 3cc2a740 3bc12933 bc8bfefc 3d6402e2 bd8c1fc5 bd82b9a0 3cc06fe4 3d2c5e2b 3e16f102 bd668cc6 3a52d441 3d52f9a5 3dbee97b 3c12de36 bdcb56be ba8a0c40 3e30ffa6 bc325f0a 3d34b8c9 bd8e17ca be0c6e43 bda7607c be3a55a9 bce7a852 bcc2423a 3c831136 bdbbcd3f 3c68c9dd 3d406dd2 bcb7e49f 3cff8a37 bdf9c706 be006845 bc277012 3a93e43e bd9a080f bb11d082 bc1736c7 be9b5254 3a95136e 3ca7099f
backbone.blaze_.2.conv_pw._batch_norm.weight 48 bd905182 3d34b358 3dbf9893 3cf5c99e 3d7da050 3d118c48 3d131969 3d6ff128 3d241401 3d9e1c4f 3d3fb3f4 3d379307 3d0c8a00 3d88cb19 3dda5883 3d6a0f72 3d10aaa3 3d239c3d 3de9767b 3dccbfcf 3dd0620c 3db57b17 3d45f60e 3d8c973e 3d183173 3d839682 3e11b1f1 3cf23b42 3d974912 3cd2b70d 3cdb3fc8 bd99596f 3daa8e14 3d43d464 3e2d46fa 3df1d679 3e4c6359 3d65e5ee 3d33ab2a 3d1e509a 3d081852 bdf4259d 3de7e057 3d27ea15 3d79d79f 3e456c71 3cf2f26e 3ddb52ac
backbone.blaze_.2.conv_pw._batch_norm.bias 48 3e0d170e 3df3587b 3e8f211f 3db4bc7f 3d1e5ada 3d964803 3da85759 3e2c1b29 3e5b5597 3e9578d1 3e3a15f4 3e0daa69 3ccd547e 3e411fba 3d056970 3dac427a 3dd9b287 3d960fe7 3e20a452 3e39ff3e 3e10d4f2 bcc8155a 3d40484d 3e3afe80 3e654b22 3c533a5e 3da10761 3e03af97 3dc1ffab 3dd53bf5 3dad60e0 3d8e9a63 3e25a6d5 3dfb533f 3dd1366b 3e1d7057 3e65ca68 3e8a69bf 3d756e08 3dcb8251 3d9facef 3e60f724 3e426f13 3e68920a 3e22a500 3e1e7262 3e118323 3dd07eb8
backbone.blaze_.2.conv_pw._batch_norm.running_mean 48 3d8dcf7a be2fbde6 bcda9f29 3dc13ec3 3dfc8790 3e8845ca bd8c638a 3bd7eed7 bcc3da31 be419f93 3ee247ca 3e04aa58 be263bad bcb5473d bf0471dc 3f0d538a 3d838fcb be9f18f6 be2a3c30 be244f8c 3ea6b231 3e1d700d be31536b 3eb2cbe7 3d1127ed bda531bf be663c8f 3d19834d bed29964 3dbe685c 3d81de5e be52dd15 3e8c1ccf 3e85943d 3dced5f9 be858071 bec0e879 3ea3dbfb be41c32f bd8c2fb4 3e735376 bd89d443 be7633a3 bec85b0b 3d6aec76 bec2e4be 3e858070 bea557fa
backbone.blaze_.2.conv_pw._batch_norm.running_var 48 3b22c029 3c8016a5 3bfe35aa 3d0803e0 3c2e34c3 3c934ed4 3c0e203d 3c8b1c16 3bd8d9a0 3bdd3493 3c0846fe 3c8048e8 3c652cc3 3c979ae3 3c822777 3c7e17e3 3c084460 3be40ce9 3c2ac76b 3bcf93bb 3d1dfe84 3c041995 3c90c3be 3c6b2ab6 3caff66b 3ba257af 3be7b4a7 3b9f8d0c 3c5ae56e 3c96def8 3c2356aa 3c2eb982 3c8d68d4 3c00d3a9 3cbc0f89 3c311b51 3cc8c7b1 3c41f380 3b6f5b34 3b804a63 3baa902c 3d002d33 3cf475e4 3c90191f 3c257966 3cb3b0a4 3bae1a20 3b3ed51c
backbone.blaze_.2.conv_pw._batch_norm.num_batches_tracked 1 00000000
backbone.blaze_.2._shortcut.1._conv.weight 1152 39fd8110 3d9b6821 3cd6a321 beb49612 bb5fda9b 3d4b8b71 3da33105 3c05c7ab 3d0000dd 3d0459eb 3d4a1258 bbf176ff bcaab668 bbc53666 3ec43715 bd173320 bdedef80 3c5a31fe 3cd164f7 bc8ec693 bdffba1e be2c6d6c ba7f049b 3d16b52e 3d3009ae 3e182a59 3e8133b7 3d734eb2 3d694ba2 3c681143 3d7d3800 3a5f27dc beac8ea4 3d75a9b2 be027949 3e8bedeb 3e002e12 bdb4e49f bcca3024 3cb20409 bddcb685 3d21e4e2 bdd46bcb 3da03d41 be3a0722 3dbf18c0 bd723610 bd863f8c 3c859fe3 3ce24c42 bd3bb4d6 3d100ab0 3b6c7aea 3db69841 bd67a955 3d7de3b6 3d63fb21 3ddb2adf 3c0506f8 beb90791 be2a41ff bd9fd240 bd11aedf 3d5cd53f 3dabd62a bd5a88a3 be71dfee bd6c724b 3e0b6796 3d07ff26 3c600167 3d17af58 3d0b367e 3c9b3996 be1ca507 bbee2374 3dcfdf48 3d76901d bddc4bb6 3e61841a 3ed98ccf 3d7c3ae8 3c84a522 bef21325 bbd84b7c 3d8d65c4 bd2dcbbe 3bae8293 be06e290 bde1b14c be2ebb3a be009424 bd2b6425 3c6324bd bca1f550 bd55c86f 3d8c33a4 3de1082c be08fde7 3c062eca be4a9417 3cbbfa1b 3e072e0b be6246ae 3dd2c06d bc578bfe 3d4d7416 3d78db93 bdfe0b43 3d6b3b21 bdc6e6ec 3d4afbb9 3d1709f0 bc5596ee be65ae7b 3dbcebb6 3e4c1f5e 3d85c8bc 3db2454a 3c7e7176 bcbc6e5f be023dd1 be922c7c 3df77685 bda5e772 3b65b762 3e22fdac bdaf3de8 3e59f611 bc8bb740 3d1081f4 bdb77e95 bc4affce bcf180e6 3d529c5f 3d301696 3d9ee742 bc897a1e bd1caea9 bcc8a192 3e0f203b bd2110ab bcd260e6 be2b5353 3cddf493 be2b1fb3 be1aff75 3d998e4f bc61d03c bc4c5f9e 3c2953ed bdaf207a 3e39fe81 3e08d2d9 bdabcd1b be40b083 3e2786be bd941922 3d322aab bdfe68a4 be897f74 3cae0bff 3d514c5b 3b995628 3e993864 bd9a52bc bdab28d0 bc37d0f9 3c68752d bab347d6 3c57c49d bb36ca19 3c1fde63 390c5266 bd2a5197 3d3c9e73 3ca16c86 39121c81 bcd211c5 bd550b93 bcc5341a bb187332 bc9567b7 3c19d9cd ba0471cd 3c05da8a bcd2bc0b 3b907e3c bc5549c3 bb445644 baf2d90f bc85a19e 3b6f1acb 3d40d830 3dcf777e 3baa8038 3d556f14 3bf46158 be1a1f11 bd3550c0 be2cc7f8 bc9fe392 bcb83fbb bd4df04a bdbb4586 bd628c8e bcca6fc2 3d0cbfe5 bc97437e bbf2a018 be10cd24 3ca51fe5 bc4f8f4a 3c82eaed bd4e0b7d be3ce393 3e46aef5 3e561847 be0a116b 3d23a29b 3b6e311f bce7416f bb1077fa bd7aa91e be578ac5 bf44cfe3 bad23f8d bdc4a05b bc509bf1 bc9b898e bdf2987b 3d46c834 bded46e4 be1d4872 3db6535a 3d132b3f beb6ec2d be41adcf 3e27fab6 3ec6228e 3db31aaa bcb58885 bef64751 bdd6698a bd488970 bcedf9d5 be2ae551 bdd43980 3e460dc2 3e8068b1 be7b0489 be02410c 3d06043c be230057 bdb16df3 bd72d629 be371135 3d4838b3 3cc8850e bd72fded 3eb5084b 3d36d47c bda7c482 bd454371 39c21e8b bb35a82b 3b886067 b9f48751 bb5e0ea6 ba56ab68 bb30ea4d b8d1d275 bb8214d6 3b3c14b3 bbb4f632 3b6650e6 b9853848 bb51c8a2 babaecf7 ba25e327 39437ce8 bae91ec1 baf8df8c bb184542 3a634ed5 b61b842b 3b7c43a2 3ab90e71 bdedaf25 bdc554c0 be0c89c2 ba22b685 be1e7a98 be10683f be9f26b7 bebbf855 3eb44be0 be050b03 3d0dff0a bdf83cb0 bd3c5e52 3e381b54 3dd88aa7 bd539cc5 be16df68 3e6bc383 be229329 3e35434b 3d4da9b6 bc4dfca4 3e038dd5 3dc12c99 3eb48898 b9e9b929 beb148a7 3e5dcde4 3e4373ba 3d5be979 beadb921 be82c7de bd5055f4 3eb6381e bddb9702 be8a2998 3e49f800 be051d17 3e204224 3e09e5ae 3e2f1a39 be6843ca be941df0 3e1218eb 3e879736 3db6c972 3de46425 3e8e6414 3df6048e bab820ef bc3196b8 be5581a4 bcf17083 be39cd50 3ceb3b6e 3d2c7606 3cbc23e1 3e27e930 3dae7b6b bdccb551 be056112 bc9c645d 3d94b536 bda8b966 bd9d24d5 3d61330a 3e21a202 3d16ba7c 3e2c5798 bd430722 bcf49011 bae87b57 bc315fcd bd122c35 3e6a4bda bd5d5407 bd61abb2 bd175699 be404316 be2f8b3c 3f20d4f2 3db41bd8 be92f5bd bcbbc85c 3e208b59 3e549e7f 3de402f0 3df82bc4 3e1a3964 3ea4a425 be8d0894 3ed9a3ef bdd2e7d5 bbd62aa9 3dca1bb4 bd7e0148 3d5f05f5 3d851269 bd9f994d bc909546 3dc62796 3d39fa61 3d81159d bcc7a5bb 3e8d8a83 3b0f0bdd bd8e97c5 bd9647bc 3da237c7 bcf4216a 3cd41093 3ca9434a bcd89421 be017594 be419b18 bdcb8bde bd3f7ad7 bad29836 bcf9086e bb20f439 bc154d19 bdc2c26a 3ef4252d bcd97ba3 bbfe6ba4 bd54c813 bbc784bf bd2463d8 bdccb991 3d9af676 bd9115d6 bd84f57b be793375 3d944186 3c8ba5f7 bdddeb07 3c761099 3c1fcfe3 be0b77cc 3c850cfe bdfcf004 3d1dd1b5 bd491ef3 bd98ff67 3d6e0e3b be4f9186 beb00811 bebd4e83 bd98ca44 bdfb6be3 bb6b0250 3a047c69 bd6f2d11 3ebfa3d4 bcc8025a bceefd81 bee12d07 3e9df86b 3e4a4970 3d79fe0a 3e33d745 bc8a8bee 3dd900e9 3d877c1b bd06bda3 3e74076f 3e15c229 3d7ed50c 3cdfb118 bdcc1aca bd17cf59 3e3e1436 bab0a05a 3cb9a781 3e8f61e5 bd3094f8 bd5e9257 bea1b7b0 bd4f5842 bcddcf39 3e9ce740 3cdecd5c bf04cde6 bd5141d6 3dba26c9 bd202ff0 bd839286 3d1a99bc beeb2cf1 3ed1a188 bbe9bd65 bca0dbb0 3d098336 bc36821b bb44534f bb21765c bdaa0e52 bd950d3e be018da9 3d8d9dee bc9af5fe bb1eadd4 bda4967c 3dbc09c0 bdcd997d be13df27 3bd7dfd3 3d9b4c10 bd4948cf be2aabc4 3e6254bb 3cb248e1 3d7e0f9b 3d0fa8ae be35ce9c bd6e9b4c bcbdab1c 3dc98ec0 bbbe85a2 3ed9b17e bc83c818 be80c8e3 3c3de199 bd59f1d1 3d936c27 3e1fc433 3d841ba5 3bd11519 be8f8aad 3d70793b 3dd04d14 3cb1c1c2 bddd4d36 bd491794 3dd7dc23 bcafd9f2 3d1bd19b bd83221e 3d06dfd2 bccae054 b9c6a6de bc85ae1f 3bdd5c88 3c0377c7 b900793c bbb8160f 3af70016 3aab5669 bb38d59f 3b558ac3 3a462bce bbfc49b1 bb9a31c0 3ad7072a 3c504016 ba915042 3bc92f7c bb4cb078 baead558 3aa70d4f bbb9b064 b9c0c620 bab8e674 bb54858f bc6d2626 3cf19f13 3dffa42d bbfdcbfb 3dc7c3b4 bd488204 bd0e1b7d bda7fa5e 3d9a526d 3e0c9b18 bb6c0da8 3d6d9f42 3db88c46 3d6dccaf bc1f57bd 3d5c9135 3d038392 3da1b65d 3e5cdddb 3d2843bf 3e4157a5 3b9acc3c 3c0d7342 3e041612 be6190d6 bdeb85bb bede4168 bb8f2f49 3e84916c bd13380a 3d75536e bf3a0713 3f0334be bd90a4c1 3eb71396 3d924afc bd52cd2b be8e7cce 3caa8dbe bd1f58bb bdf28dc1 be69c574 3e86bed0 3e994efd baac95ab bcb2fdc2 be05676a 3e55ab76 39d0d726 bd04c9dd bd83326d bd861d84 3d593fb2 3c8b9a34 3e69f953 3da6a4c8 3de95502 3f004b12 bdfdb696 3d512943 bd57820d 3bd6b528 bd3f7e97 bcb1309e bdb9fb09 3d86cce5 3d6f9435 3ca5b0c0 becd29b6 bd4c4c9c 3d69d422 3cd0dbf3 bd2af41f bddc7edf bdc90de7 3ecd0972 3d459d8f 3e759143 bed867e2 3d41e50a 3cb065af 3e4c6cff bcfc2a03 bd0dbee2 3e5874ea bb9663ac 3e31084a 3d0e816d 3de9f34d bce8bed1 bd41702a 3ce793ac 3f375280 3eaab086 3d96ef60 3d850919 bd8ddadc 3e35d556 3d96d693 bd91910f bd8c88b8 bca0f4c0 3df90fd0 bd770923 3d36f6d7 3e285c0b bc1d846d bc4e9044 3e803fc7 bc8aecd2 be5bb76b be132b3c beb89b5f bddb3d72 3d864c9f bd54dd47 bcff648e 3e6035c9 bd471f68 3e84d842 3ed8bad6 bc4bfb89 3dceaf2a bdf97f7a 3eafd272 bdc49763 3eb18a30 3e714a12 3eaee365 be1a15bf bd4b952f bea4da67 bf122783 3d5673b0 3c96e0fa 3dd72b4b 3e744cce 3c21b611 bf1bba89 3ee4ec65 3ea600ae 3dc224a1 3d18c776 bdeb299d ba9b7c65 b7297281 3ac8c10a ba74a8a6 ba833098 3a3b4001 babfa699 3a313852 3af93014 3964b977 b8e909cc 398de875 37491ca1 bac0f78a ba8e7386 ba598042 bb192e6f 39716cab bac956bc bb0304d8 b982d9d0 3a33ac93 ba8016bb bb2e4221 bda02e13 3c2da2d1 3e2defa5 bd6ae3e7 be61a947 bda69c9d be97ef31 beec6e37 3f605ffb 3cb4a8fe bd27ab49 3e8231ab 3e053ef1 3de9995e 3a7d5fe0 bd540f4b bd09507b 3eaeb386 be3ebfcc 3e9691a7 bd53f13e bd4ff1ee be3c28ba be67ad43 3ba22269 3ebba89b be2af762 3f3dfab9 bc8020d6 3eaaf1d4 3de3d57e 3d929ad3 3cb6904e 3e93b5bf 3d1549de bcb7732a bd9ba4be 3dc11287 be9cd994 bb0fb008 bed5aebf 3c52d3c7 3e80d2e9 bd13c14f be8b73dc be5886a8 3dab1000 3e6dba02 bd715f74 3dcf18d3 be14bc72 3e56cb75 bbb020a4 3e5dc361 bb80c384 be26bb09 be141521 bee76dde bdbe55d5 bdd44cfa bd797a49 be299f00 bdd5e230 bc7eb031 bdc5c28b be172a75 bdb79dfa be13ad47 bebe9a93 bd852739 be17ea82 be73194b 3cbb9384 3c989efd bcc75cfc be318c97 3d840913 bd2586c8 3d324344 3cd60f43 be9cc8d6 3b03668f 3c3404f7 bc974306 be9e89d9 bdd18ba7 bd385f84 3d0817d6 3cab477f be57b6df bddf5499 be0cf582 bd9609ae bc0dc8df bd9d44f1 bda5ded6 bd4bb4ff bdc4dd2d be3e364d bcbef9a2 be004098 bd92ecff be80f4b7 be095d86 be18cd80 3cafcd81 3b6d29b0 3d92d749 bcc66e8c bdd670ec 3e1851b3 3d44e7e7 bc75a544 3d88fd12 3d4a217c be3d5377 3c9ad39f 3d1ceb77 bd2251a4 3da59405 3d8a03af 3cef2931 3eedadc3 3d3642a7 3e16b649 3ded3553 be5194fb 3cea7676 be5d7cd4 3dc79783 be6f2750 3d748536 be497d74 be03069e be2059fa 3cbac839 be320ea1 3de4f527 3b9099d1 3e175025 bdaa48a1 bdbebf1b bd0b7390 bc32761c 3c8e8946 3e294133 3df8157e bc7bea82 3e02c401 bdf985de 3c0f478c 3de0fa15 3d2cf5ef 3e47e169 3dcbd5f8 bc29c05f 3e1a961d 3dcdb39b be54a4b2 3e075da4 3e42cae5 3d869810 3e1e7161 3d5f28c8 3ea33c3b be9fb617 3d4cbf89 3dbaab22 3bd4ee96 bd1f07f3 bc2bda9b 3ddb332e bbd2e984 3d05f3a3 bdeb40da b984d79a bbd6217d be0305bd be9c1302 3dc94962 bcbfe9e1 bde9b0a7 3d2f207f bd1da957 bdb9a703 3d6e8cdc bddb713a 3beb3c4e 3c78f3bd 3e29f0ad bd1cf455 bd4ced33 bc8dee40 3e102add 3dfb9f48 3da809ea bd2f6ad6 3e2388ad bef6c36c 3c9923aa bdaef268 bdf5d786 3dcee637 bd049ca7 bc8a21bc 3d1f73d1 3caa229b 3dcbed06 3dc033b4 bd767b23 bc8c05f6 3cc9b9f6 3f44a219 3d80b4f6 bc08d570 bdae3027 bbd06bde be3f459f bdf1c3cd 3d55042b be90d4b7 bdc994af beff8953 be75c333 3ebdc94f 3d0fa2c1 bc9f83b5 3cbe71cf 3dca19c2 3e7a79e4 3e0be0b9 3d2ea80b be6478d6 3e6323f5 bd194862 3e9cb9af 3da7686a 3c8e5145 3e19e1b9 bc6989fa bdf9ce65 bd9463d9 bcaf2d18 bdb83c4e bd5fbdd4 bdfa2480 3e679cbf bd49943e bd9fa796 be85658e ba113021 bbfa26bb be465c78 bd70e282 3e0abe81 be3a5c97 be4b29ca bd5ba7c9 bd648db3 bd796f75 bed90939 3d9854c4 be2187a9 bdb0e9f2 3e1774fe 3d499727 bd8f2c32 bd3e91b1 bcef6ecd bd4a9ac0 be4a53b5 3e01e773 3ea62b30 3e35553a 3e24a016 bd8f0be0 3d5acb0b bd3af21a bd2e03ff 3ba1193a bd697b67 bdfeec05 bdaa6c26 3e4ff525 3da3bca7 3d32b466 be01d35c be4ba730 be13272a 3c070bad 3e996cad 3c698698 3ee0d12e 3c00623f 3f098d9c bcaa8238 be7864ff 3e799aca be356b24 bdf8a27a bc886394 be81b03d bd98bc18 3ba711a2 3d901cb5 be661e2d bd9e795f be6a1a5c 3dfe4db1 3cd537d0 be1990c4 3d2a8574 bca3d829 3dcc0789 3e2d0fe5 3be1ef2a 3cbfac92 bc80066d 3e038e39 3e8008ca 3ac62198 be289bca 3dacc239 bddcd6d2 bccb7422 bc094dc2 bd532d25 be7e276a bd011d0c 3e04fa44 3e9b58e9 3ea32159 be06bc1e bb705b1e be2def42 bf23409d bdcc7a09 3d6e7c6b 3e5ee994 bd8c5ee7 3eb678d5 bdfd7392 3f4a3d53 3f68a9d7 bf03e1cc bd0a4c3b bde97653 3e48e192 bd01be6c beaf9a3f bc184114 3dfb4f29 3dd09af7 be05bfa4 3cddf19f bee8a815 bc8cae14 bb9c1c1f be684edb be324e51 bc09be29 3dba38a1 3e35cf5d 3e37aa85 3dd70861 3e106471 3d8507e7 3de3333a 3de89d90 3ef36c98 3e419481 3db992f3 3e59a626 3d8afae3 3df724b9 3e10e166 3e05d2b7 3d01acd8 3e3b72d4 3e11a42f bd3c2058 3d6e759f 3e92f8a9 3e3591eb bd20176d 3d0179db 3e066510 3dcd48dc 3d9d070d 3d7df23a bd650213 bd11501d bdfb5856 be73c383 bd146806 bd50b58d 3d553b71 3dcbce7d 3b9a0324 bc301aa6 3c7e056d bdf0e8d7 bcf753e0 bd946d67 bcbfccb6 bd2521c8 bd976d0c bdc91bbc bd6a349a bd500507 bd6dfb02 be1748c2 bb88a671 3e2004f0 3d7e616c 3d4660c2 bbac74a7 bdf4f32d 3c1cc54e ba6d6bb2 bdbf237b bccc72b6 bd1556a8 bd38ecb7 3d90f63c 3d3081a1 3ccfb87e 3cc5c644 bdac8234 3d4a9c5a bd5f6a81 bae853de
backbone.blaze_.2._shortcut.1._batch_norm.weight 48 3dd2a0cd 3cdd98be 3dd3aad0 3c95cda8 3d219844 3c2c742c 3cfdb1cb ae35932d 3d901efd 3df6f3f9 3d9aa9b2 1d483934 3cab575c 3d062fdd 3d0c2a5a 3d5202de 3ceed5b6 3dc07b72 3d8f8e0c 3e0043ac 3cba13f7 3de39dc0 23e0141f 3d6eaed8 3cc74269 3e0802e1 3dc2f7d5 3d3d0e17 3db63fb1 1c7f8135 3cd1458e 3d9f700e 3da1a222 3d3d45b9 3d69070d 3e293c9a 3e017813 3d0dac76 3d95309c 3d88a1c3 3d5577a1 3d4b80d4 3d3902fd 3ccba3b1 3da3fe3a 3e4355f5 3cc977ef 3d8f43d9
backbone.blaze_.2._shortcut.1._batch_norm.bias 48 3e1289bd 3df76bc4 ba07b66d 3db059ff 3ce8b237 3da18b0c 3c580912 b04b3094 bc515915 3e9c6ca1 3e8cfb6d 9e4a555f 3de3391b 3d53b41b 3ddee8ff 3e29d3a9 3c13727e bd032f41 3e8d5e83 3e3e548b 3e0a25b9 3e01ea0b a5e6f9e0 bd04d996 3e65a6bb 3e89abe2 3dd97956 bcf3a1e8 3e2d8b3b 9e3251d5 3d6fb972 3e3777ab 3e8ea0eb 3e406bbb 3e7ecd62 3e17b8f0 3e4d8d01 3d3c7a8c 3d139572 3e42b475 3e6a0ee9 bc98a282 3d8e8c35 3c52d764 3e0a7208 3e52dd05 3d848353 3dea41e2
backbone.blaze_.2._shortcut.1._batch_norm.running_mean 48 3d8cc654 3d01d67f bdd39b4e be5e263e 3d923c58 3cce2ea4 bdabb31a bd8341b3 bec13faa bf12917e bf01d57e bba36616 bea9209f 3e3fbfbd 3c6aa3b7 3f0250f9 3c013ffe be1b894b bd8d854c beade58d be32197c 3e724744 3b29d03f 3f111802 bdfc6989 3e29e450 3f22f10b 3d195d20 3e848c2b bba941ea 3db6e94c 3eda84fe bf7d0308 bf18e4e7 beb2abe1 be498f3a 3f4adb90 beb6ff52 3e6a6f98 bdf8311e bf478ca0 bd10c59d 3eb99f56 be846e0f 3ee2fdff 3fb2019a be2ecd89 be4869fe
backbone.blaze_.2._shortcut.1._batch_norm.running_var 48 3cf89ab8 3d09b6e6 3cbc1b53 3d876c8d 3ceebeca 3cbac2ac 3c8ec69a 3aa8569d 3cf064bc 3db23de5 3d87508a 37971d7a 3d1bab68 3d1569e9 3c42f60b 3d93bc5e 3c6bc59d 3d0004aa 3d3d975d 3d96f91e 3c9535cf 3d77ebc5 378f77cf 3d17f69f 3d630677 3d5160ef 3d264eaa 3c603997 3dbe0aec 36ad6945 3d829b68 3dcfe465 3df6e264 3d851e76 3cfface7 3d7884b1 3da22570 3cdd3d01 3cb17347 3d469de4 3d8004cc 3c9ffc5f 3d785b8c 3d3e9b18 3ddf6582 3e356086 3c9b34ab 3c1f26bb
backbone.blaze_.2._shortcut.1._batch_norm.num_batches_tracked 1 00000000
backbone.blaze_.3.conv_dw.0._conv.weight 1200 3d1bb174 3de2d70c 3db9072a 3d5df7b2 3ac52308 bdd50435 bdec2ef7 3e202176 3ead610a 3d08c7c2 bdc1e867 beb80844 bda1562b 3ecdd655 3def7fd3 bd61130d be41e774 be2a5411 3d15649f 3d80badd bd4e676f bcbb335a bdce444a bd9bc044 bc17cc8d bd418a82 bb0b1dea 3a2f3bfa bca1d5f4 bc302255 bd0e7f53 be108c74 3e407948 3d467f6e 3d7cd5ba bdb1f7d5 3e66be37 3f2c484d 3dd44e26 bc987174 bc25092f 3daffca9 3e13a2e3 bdf69232 bc0178c8 bcd83393 3c5cc9dc bd43f992 bb2a8502 be170c31 3df7afd5 3d99897c bcc57745 bc712405 bda21c43 3d4b1338 3df8fe10 beccb97f 3e2c44fd 3d6f0c11 3cfcb4ee 3ed8ca15 bf85a552 3ea91016 3d9aa906 3da27947 3db0ff71 beafc909 3de55a10 3dbf2824 3d7af211 3d36aff2 bd8cc922 3d77c422 ba4949ee 3aeae958 bb9972ce bd314208 bca03c95 3dac2b06 b9bbfa34 3d396b7b 3dbe6e51 3d0d5b20 bca600a5 3d8f62c4 3e7df90e 3ee350e0 3ea38373 3d885042 3d796f75 3d8c3086 3da0c0c9 3db7f6b0 3d2d6bd8 bc83f1be 3d068b15 bccc7406 bd056bdc 3ac20165 bc9e1783 bc581993 bd8a2d0d bdedda04 bc18a97f 3d608f63 3de9d6ed 3df8d9b2 bdc99cb2 bb7a664f bd5f7b1f 3d9ae99a 3ecb79c4 3e319fbd bda10ee6 3a50e90f bd22099e 3d90f275 3e39dd67 bbf6b312 bd4e78ac bcc8b211 bd7cf7ae 3db050eb bda61e0e 3d34a7e4 3d1a8e2b bc0f265f 3b31e89a 3d196cb0 bd08dc9e 3dcc2cea 3e931dce 3e42b1d5 bd23a3b1 bc3fdf99 3e0339df 3ed0d23b 3e488a8c 3a4518d0 3da5bb85 3d5e351c 3dc0df1b 3d1e06e4 3d2c6193 3d21de2d bca384fd bcafc64a 3d6fe239 3be7639f bdd2b34f 3c7d543c bcf88911 3dc676de bbe99bda bcad3640 be420f78 3c6860ea 3d188d52 badf52d0 3bf87744 3ec58d21 3f27cf07 3e9f6811 3d55e3e5 bd0775ba 3dbb354a be7867ad be886c0c 3c11ac73 bd21f6c0 bd2a52b4 be4f0f07 bcd0fcbe bda38c8d bd04c7f4 bd26f18b 3c9a6450 bc89dd91 bde55b35 3d4dbabd 3c9e331a 3e04d498 be4a51b3 bd8a51ac bd2e4076 bd560cb1 3f8c7bf0 3c5199b5 be2e2f48 bd42c7a1 be908a28 3e920a1e 3d9218cd bc199922 bddd5d9b bda7c5ef 3a81658e 3d5881bb 3b825c5b bd2b350f 3d577979 3b952228 bd0daa43 3c9816fa bd8c0644 3dd7213d 3f183b1c 3e8bd1bb bcc226b5 bd95d5c6 beb914d3 bf9eb707 be2c2d26 bd06047f 3c5dce2c 3eb76997 3eee9933 3dc9a293 bcc8a317 3d21a904 3d08ad0b 3d985fee 3d94993c 3c07329f bd6dbf15 3c7550e3 3b729465 bce83a91 3b95ae5f bdb80450 bdda2a81 bdbcf215 be0c47e4 bcfca885 bdc48729 be84880c 3e67984e be4059b1 bdae551d bc34113a bd0c1a96 bda9506d bd474d46 bd4910d6 bdfa1346 bc064fcd 3d1de270 bc9b83ed bdb1639c 3c67bd8f bd4cca0d bb286767 bbe7c213 3d1889a4 3d94eacb 3e9bdaad 3f5fa0b6 3e8a8128 3c9f9791 3adc4bce bebfeb52 bf7e6730 be3db72f 3d914c4e 3cd833cc bdf86e8e 3cade06e 3bba3ff2 3ca31520 3cd14a3a bd794e67 3d34b853 bd1d7ed2 3bd8a6fb 3bdc9b52 3d469371 3d8edf67 3d5f90a2 bdd5979a bcb5fb7d bd86f153 3e79631b 3d171c43 be323824 bc027f11 be55ba2e 3efbd684 bd07db8d be14331d bda1b11b bdaa5a26 3e896fef bcea0df1 bd560694 bc3daad4 3cffece3 3d1e4868 bccee4f2 bcde9e09 bd6a542f be5feed1 3d46f97f 3e13c835 3d52af95 3e1a709f bdba70c2 be5271df 3e5b5e96 bda2259f 3d54718a 3e4820d3 bf50f3fd 3ca54f6c 3e16894c bd979fc0 3e38b110 bdbd23e1 be80896e 3dc61eed 3e0d110f 3d6567f3 3d52f62c be0bf7c6 bb531c38 3aae4c8c 3cc9080e 3ceb1265 3c02d177 3ae7d7f6 bd5bb307 3da1d524 3e7e7401 3da47b31 bd186f78 bba4cc05 3db6f496 3e8a1744 3da50d75 3cbb9ae6 bc3b82ee 3d4df277 3cec688f 3c7d2fc5 bc1240b7 bc4f125b 3ca570b7 bbff00c1 3d3a7134 3c3303c5 bd19acf3 bdc8056e be24eace 3b577c1b bd996499 3d930b73 bed134ff bf3e5b9c be4714d8 3d57ca14 3c1a4113 3f215219 3f9da4b8 3ebace53 bd6f15cc baddf329 bcf15c9b 3bd35044 bd7a2d64 3bbdace4 bd599d92 bdd701bb be549e53 bdb60c3b bc63a19b be11f1f2 bd0af8ca bd9d8f88 bcf9fd6a bb70efbf 3c6b4d14 bc81d52b 3e01eaf3 3d833010 bdcd3c7c be2f69fd 3e2002e6 3ed8c02b 3d85e3ab bda8e910 bda76efe 3e498551 3e20bd84 3c796146 bae75123 3ca01d90 bd7557b2 bdefe970 3d244b55 be0b059e bd5cb3f2 bd7c32a0 bdc1644a 3d978a88 bd137ca9 bc16d002 be7cfda2 3e26a547 3e4410c6 3d05fb56 bd87d22e b9801cda 3f250712 3d04f69d be465c26 3db1e7c5 3e5e74ee 3e30d200 bea4d216 bcc32962 bcc6dda6 3d736c1a bdf38c21 bd44d4f2 bd9a8553 3dc2d1df bced1647 bd8a3516 3db323a6 3d3939ca 3c79ef19 3df114bc 3e391f9d 3cef46b6 bd64df96 bcc10e3e 3de529a1 3f0126c5 3e334241 bd717afa bbe72990 bdbdeece be0b886a 3d847666 3d593d4d be63298d be2b860b be940812 be137724 bd5b8b71 bab6a4e5 bb25a83a 3a6b0326 3a02003e 3a341331 bac5326b 3a54b1b5 3a1225b2 bad37968 bb725f31 bb20130f 3b15bdb8 bb0126ea 3a0118b0 ba3170f0 badbcc6e b8f23968 ba4ee7a1 3997ae33 baa9da2f b9acf549 bab679a3 b9937632 bb0f0bfc 3a81caaf 3b10a6c7 bc7bc371 3d6a098a bc93bbb5 3c86990b 3b624e66 bd86940f be204c1b bd2fa3b6 3cc0481d 3cc1cfaa bde3b39a be88d780 bd06276d 3c9263c0 3d16df35 3c496a95 bdc0a709 bd40eb77 3c9e8e74 3cafea07 bcc04043 3ca4698b bbdf35e8 3c26a86c bd1926a6 bdcb3217 bbc276db bd916205 3b0fb341 3c90956e 3b81a42e 3d686257 bd34ec09 bcd6d6ca bd447536 3e92348c 3ef42590 3e865f1f bd39c4db 3d3b098c 3db38ea2 3e3c68e9 3d721e6c 39c13fb4 b9abc052 bdb82cd4 bde3da01 bd7ff29b 3ca5e5d7 bcedf315 bc1db6b6 bb4fe371 3d8a3767 3d4328fc be0c6d00 be80e3f7 3b6139b4 3e91e71d 3e39e340 be1f52ad beb6a997 be158fd9 3edbcc12 3e57a038 bda4c992 be5b04a5 3cb0f91b 3e18dd12 3d6d5762 bd5a31b4 bd9ca9fa bd56d615 bcb5dec8 3ad90417 bc997588 bd8ce255 bd688507 bd178b44 b8ccc01a bd33af89 bd1f532c bdd05909 bd83519f bc52d2c6 baa83e39 3c162d0d be0b4251 be157e17 bd4b6339 3ca1a7c9 3d8cc6d9 bde0a020 be1f83e4 bd4a0c32 bce3125c bd662878 bd9b2e51 3d4f4120 3c20b167 3caf8fe9 bca06082 3d371fe1 3cb8af68 bcb84f6a 3d245051 bb8912f8 3d9e816c bb3ab004 3bc51aeb bc0835f8 3da70623 3eb9973e 3d056bca bcc0eff4 3c8645bd bc107e64 bd0bcd8e 3d9d5b01 3d0629be 3cc9fa70 3cc0ff6a bd92ba58 3d244821 3c9db77f 3cc6d88b 3c2b111e bd9f30c5 bd291261 bceafde1 3d04b6cc 3d94a943 3e7a8e24 3c57a832 bc799838 bbf68427 3e13cd7b 3eefbdc9 3e1806e1 3ce449de bd016eda 3cc5fddc 3d89416f 3d3dedd4 3a5d3857 bce34065 3d065e47 bcf85a71 3b835dfe bccb5cd4 bd9237f1 bc545a1f bd066191 bdb9420b bbcb3704 bd89f483 bde0f5d6 bee1b0c4 bed06f8d bda7afc0 bb435d7a 3dcfb782 3e5a2503 beb15daa bdb63fd9 3d470bce 3eb4122a 3ee3a677 3d755626 3c4606f0 3dc95d0f 3e2d2e6f 3e5768c4 3d98c652 bd096a5a bdc68302 3b61bb2a bdfc4215 bd84fa5d bde90830 3d740638 3cee835b 3d9c67b4 3bbacc2a bd030fde bdc096e4 3d183a6b 3fa7329f 3c51e7d7 be0e0535 bd346d30 bd81e630 bdb70373 be028647 3c1c26ad bdf4e878 bdad0e86 be3a2922 bd7e997a bdca129f 3cf5f473 3cbe2502 3ca4bdb4 bc9f774b bc590690 bcfc6161 bd7c238f bdde5d78 bd8946fd bce6de79 bafc0dfd bdaa13ce bdffa722 3b650d7f bc9ab13e bc1178dd bcaeeca6 bb85e141 3d02cf68 bcbcc717 bc4fb657 bce7ff99 baebf4ec 3c39aeac bd4aef5d bd8d6b20 bc832225 3c3329af bc33a363 bd106a35 bd536155 3ddac654 3e5260a1 3d5abcb6 bd4a4770 bd63fb5a 3e2730e1 3ece2b22 3df38ec5 bd4047b6 bca81504 bc2ae45f 3c73836d 3da83e26 b9b8fa38 3ba7563f bc1c115c bc93df52 bd15d316 bce47903 bbfab45c 3d74ef24 3d4d07a7 3d99d1fc bd3df450 bd84122d 3dee8ae3 3e22e80b bda53b1f 3b3b2e4e bd8e91c1 3de46395 3ed5148c 3d96d7d8 3a2ee96c 3cf4fbdc bdcfe4b9 3e0a41ed 3df0bc92 3d8189f4 bd9b7533 39dbc0bc bd8a2dfa 3c51e370 bcd9f061 bcd95791 bc1a85e6 bd23eadb bcc7b4cc 3d713bf0 bb0936ed bdd33bc0 be5433bb bd1e7697 bc197da4 bcf427ac be643ca0 be83fa7e be03db63 3d0dbb9c bd7845e8 bdda8709 be2c1b3e bd196a11 bd28b526 bc35a31a 3d31ccaa 3d6dd758 bc40f879 bbb8228f bd0e2f2d b9f22f7a bd8f67ab bc2e30c2 3c0e0e00 3b4104b4 3da3272a 3e252567 3dae6787 3c8ceacd bd012b69 3e377cca 3e4787f7 3e2f6304 bde540d6 bcd03fef 3ca13799 3e1f99e5 3dcc6bfa bcadf0b9 3b8a8a45 3c8fd681 bdb0e4d0 bcebfd3b 3c03e5b1 3c8be8b3 3cdf6d9f 3db999b6 bc8e6ed9 bd0c7e9f bca7a1ee be3b5698 beb85d19 be5c6ade 3c8aaaf8 3d2ce31c bdf02e6b 3e27c1bf be18d7bc 3d8723cd 3d72d4d9 bd695184 be3845e2 bd2c61f0 3d83da29 3ca833f4 bbd13fe4 3c2ada3e bd2a8f7e 3c968940 3da820b9 3d51b199 3e04c46e 3d1b290e bb3ff282 3c90dbf4 3edd456d 3d393293 bee08ade 3a964589 3e287537 3dbe66b3 bfa96bdd 3ebb68f2 3e3e2e45 bdb20012 bf1f5559 3e55ff44 3edd3f25 3cb76065 3b38c7c6 bb8f79b7 3e173240 3d4ed625 3cf40ea7 bb08b92c 3baa8882 bafafb03 3b103cc3 bad02d5d 3b85cf3e bb8db48e 3b815124 bbe0181c 3be44718 bbd11009 3b6d0723 3de27de5 bbc0a800 b9f34222 3bab166d bb211664 3b8c2fa1 bb9df90a 3b28f5e1 b9b7e8fd 3a6362a0 bb86e4e6 3bc76a30 bb8c78d1 be0dece5 bdc17820 be0e0bba be0bb9bc bdbc5caf bce452bf be42677f be5aa3a7 bd31f494 3bd8366c bd0cde2d 3d02dade 3f012814 3e6f6775 3d484ed0 3c12a754 3db07c6f 3e5bf444 bb37fc6a 3cb62021 3d6bbc2e 3d607156 3cd84dbf 3c3755ed 3d13863d bd0c7232 3dade6f9 be24a826 bc854ce1 bd768d6c bc5458fc 3e550476 3e5a236b be980791 bd939f34 bd9baab3 bf2cd684 3ff7f665 bec0a74e bd178ba2 bdd8abc0 becfbd5a bd2f4077 3e153932 bde84384 bda4c0f2 bc9418f1 be600b2f 3daf6cf1 bd3af42b bcb38d43 bdb5b212 3db7f3fe bd8233f4 3b152a04 3e345571 3e29c55d bf39b1c8 3e288ad0 3e0b534c 3eb8873e 3ed672ca bfda3dc9 3f0c94b2 3ed4045c 3d51115f 3c9a46a8 befe4051 3eb975ac 3d6d5058 bcb4a387 bce0a0c1 3db2afe4 3cecb39f bddb10dd bb1e5f4c bd7efe64 bd4a12bd bd6e614f bcf60377 bba58f7f bd427971 bdf344d9 bd62fdde 3d48fa6b bc405054 3cc10ec8 bcfbd573 3cb4bc8c bd0348a0 bc7c5001 3d5e86af 3df3d3c5 3d6b6fe0 bc0f6cdb 3c4c567e 3d38cd4b 3db08034 3cbed49b 3affa7e4 3dd58671 3e1499a6 bd341a1a be24e987 bc986acc 3d8a5fb1 3ef7a764 bc28638d bf09baee bcf66ef1 bc995a98 3dc58bcb 3c586aa4 bdcb5305 bd75af14 bd6deca9 bebfee67 3ddb3278 3ea0d0b8 bc505a55 bd01d05c be03c1f8 3bec835b 3df557b6 3cea3daf be2a7125 bd7304dc be864455 3d0f78ce be00102e bdb5e9d0 be3d388d bd9c0d51 bde73dff bdd0c5e9 beb042d4 bd522b06 4034b65e bdaac69b be9c1d2c 3c2c9f58 bddddacc be3b5b7e bb04b4a1 bdfa78b1 bdd6e990 bd404ab2 be8a7ff6 bd29ea66 be05e8bb be2a7c51 3c517ad8 3e82d5e5 3d878b78 bdd78c08 3cc83bbb bdbb503d 3f1f2d76 bd1cb2c3 bd7032e7 bdcc7cf5 bf007886 3ebe4ef2 bf133fbc bdb3cbf9 bc88bf43 3dc619c5 3ef064b6 bde9db38 3d88f590 bd76e32d 3e083e79 3e097787 3d10ffb1 be00438b 3b413daa be0dfa9e be58faf7 3c672676 3b4b647f 3d8225c9 3e0452c5 3ce0da44 be0d2d68 bd8e3134 be160f9d 3e5c298c 3f81201a 3e98b7f5 bdf5e0be be10fbc7 bd30e6eb 3de2cb59 3da1f8ae 3d95f823 bd361219 3df207d7 bd0cbd68 be1dcd1a be0eec08 3c1595b6 3dd2a232 b98fbfd2 3d15df63 bbb158a6 3d02a502 3df863ff 3d8e44ba 3e3767f4 bca3c543 3d197124 3d835293 bdb3a2bc 3e20b9cc 3d91ad10 bc24326f 3b8585fb 3dbc16de 3ce6f31b 3c63a63c bd0d5384 3dd17303 3e201b41 3d8ba92b bd08bb42 3d178b7b bbd47a08 3c73b9cc bd1028fe bce0fc6a bc454701 bdad44cd be13c599 bd7cfe92 3b9cea9b 3c4979cf be71e860 beb10a41 be22e763 3d9832ee bcc45b8f bdac6e71 be14fca4 bd71d9a2 bbfef690 3c66e280 baf6f041 3ce3444d 3ca00642 bd88d82b 3df22d36 3dba14f0 3e09601e 3c84f192 3de5c307 bca28bd2 3e88d5ff 3f89f76b 3ec23e34 3d43e046 bdb45a07 be4c898f be9fbce1 3d6baa4b bd36c78e bd32658b bec7f61a bf645fb9 be9f73ee 3d5b0b83 bce3f543 bd18cdcb bd8e626c bd8a47c0 bc79aa00 3c5e642e 3d91f0e1 3da50811 bcb4adb4 bce5902d bd8f9c67 3d4eeb04 3e3db74b bda0f61b bda10ba4 bd388c83 beb1a278 bf7a6f04 bdde527e bd754196 3e29292f 3e865991 3f43a984 3e7cfb6a 3e0f6b49 3c96d445 bd1ca433 bd64d7a0 bda888c0 3d8ce857 3ac58502 3b50f1f7 ba586a25 3b500b28 bb0ac765 3a19bf7d 38f50d3c bad1184e 3a2aceef bac66cc6 bac83c0e 389302dd b9f7ff34 b966df23 baec702e bb09e046 3af254f3 bb13eb09 3940ea7b 3ab49eb7 ba88ab1a b99f25f5 ba99f49f baa43bc7 3a6aaf83
backbone.blaze_.3.conv_dw.0._batch_norm.weight 48 3e6eb6da 3e86ba1b 3e7f4fb4 3eab6291 3e58c62f 3e85685d 3e8c83c6 3e953756 3ea09c03 3e194480 3ed06f3e 3e869272 3e94f244 3e3159dd 3e9c172e 3e8c4754 3e77b814 3e65095e 190e21de 3e478d00 3e96c0ed 3e738b03 3df031aa 3e366201 3e609f41 3e99d327 3e490ea0 3dd2a1b8 3e36503b 3e79f1a7 3e7ed4e0 3e08e258 3e6ad31d 3e9ae6cf ad5f30aa 3e91fca3 3e97a623 3e93abb9 3ec6b7cf 3e4b2106 3e6e15b7 3ea2f2b7 3ea66ee3 3e6d1668 3e8238b4 3eab774b 3ea4963a 2bf638cb
backbone.blaze_.3.conv_dw.0._batch_norm.bias 48 bd4a3501 3d02519a bc0e63c7 bcacb948 3d833513 bd087f8f 3c785ede 3d58c1be 3d41f6f0 3e473f93 bd0f3f61 3c0f91b7 bd00dd92 3ee4c029 3cc609a1 bd9ec3f4 3d6701ce 3d131e3c 9c2edb02 3db7eaee 3e3c262a bd1e6123 3eb4e3d1 3dfe6448 3e8d1eb2 3b218a98 bbfa86bc 3e7ccb1d 3ea0ecaa bb4b5a4a 3e678fa5 3e9563e3 3e69d7e0 bd773007 ae3d286b bcec4e3e 3da8fc31 3e29e835 3d7f9cdd 3e8fa86d 3e7d23eb 3ce4195f 3d6fc4e7 3e966fd8 3e4691c0 bacc5085 3cb5da75 af60a32a
backbone.blaze_.3.conv_dw.0._batch_norm.running_mean 48 3ba71611 3e4aae0b 3906ff2a 3e8f94f5 3d356b3e 3e841497 3d26c857 3daa888e 3cfca953 bf4a1194 bc5f3941 3d030319 bd87571a 3e6dbd1b 3c2fa8b7 3d70193c 3d1aa8c0 3c443cbf bbe391be be6d107b 3e75dec8 bc8db771 bd6ab2f9 3e10c469 3ef65920 bab12208 3bd1111a bda16c0d 3e417988 3dbc25d1 be45235e 3e479bba beba0d14 3b4e9c0a 3d238102 3da3dd51 bd6d915c bd803150 bb6c4c39 bce579fb bcab94a9 3d7d0692 3e514e98 3e8d00bb bec46950 bd879bed 3c545739 ba877175
backbone.blaze_.3.conv_dw.0._batch_norm.running_var 48 3bd6158d 3ba4a1e1 3c7a8078 3b0fc5f3 3b2c8154 3b18df78 3b462bfd 3bb42385 3ba9afff 3ce314fa 3c8dc57a 3aa9ebc9 3abc9002 3b842e16 3c51b495 3ae506d8 3b1f444f 3b443419 3621e5a6 3c55d06f 3c1c0982 3c4aa8c5 3a2929c8 3b023463 3ae7f0dd 3c713109 3c52fe02 39339e43 3bb210a7 39eca739 3ad131f5 3bfca308 3c689299 3b9c8587 39a68167 3d1ed808 3d9539b8 3bddcec9 398edd22 3bbb6e67 3c2159e9 3cb252b8 3ca22769 3b35c7af 3c0f6a3b 3e28e795 3b312814 35225793
backbone.blaze_.3.conv_dw.0._batch_norm.num_batches_tracked 1 00000000
backbone.blaze_.3.conv_pw._conv.weight 2304 3db46f5d 3dad4cc2 bc9125e8 3dc8d433 3c658b1b 3e0062ae 3d134a3e bc80bc65 bce40605 bd832a80 bd639603 3d758bc5 3c0f3eb4 bdd0cf9b bd2305f3 bc51bff8 3be3563b 3cb3c1f2 ba8b8448 3f056a11 bc9ec773 bc8776f3 3dbe7088 3d8f5b15 3d62df4e 3c15078e bd8ec7c4 bce5c2fb bcdefcbd badc9ab9 ba8be722 be27512a 3d714024 3dc44e18 bb32465b 3d7dab40 3dd93e03 bd2addb2 3ce31953 3d28210b bd880c6e bd2a35f5 bc546e58 bd1e3fc5 bd82100a bd7decd7 bcdb8170 ba97542a 3de727d0 bf2a5958 bca2f1dc 3db8f457 3ed15096 3e3cbe3d bed82eae 3f21cbe7 be8212b2 3d2ab087 bed2c1d1 be05c877 3d10f90b bde92404 bda4c70b 3e0c2521 be775836 bd836397 b9b7fc6b 3da0fca9 bea55112 3c78aa99 3e498bae be7c8fe1 bd2f325a 3e7a4cb6 3e120d21 bdde0d69 bd6fea7a 3eda9b95 bdc02a64 3dbf273e 3edc2d7a be82c9f8 3ac61a7f be896a78 3da682d3 3dffb2bd 3d329839 bc96c8c8 3d291e48 bdefe7ef be9789c6 be17be1d 3e43583c 3d4c996d bf01da75 ba425e9b bc006883 3c7ff42f 3dad90e6 3e5fbb96 3c428eaf 3cffcfe3 bd0cc8f9 bdd18b49 3c1664e7 3cf1bed7 3d955b48 3dae85d8 bd948df1 be3f46d9 3caf5f77 bc93b307 3d922210 bc15a10b 39a83b79 3d71730e bd1aa6b9 39c9767f 3ed9239a 3d120c5f 3d96a715 bc090862 3d5f670f bc9b77bd 3bcb5226 bdd5d188 bd86692c bdd6be60 bd732403 3c72c99a 3c41e0db 3d5017ca 3e426522 bdd48df8 3da7088b bb77b536 3d612081 bb079df7 bd6f75db be2d8138 bd9d2f10 bdacdac1 3d268521 b940efab bd866770 3f4cd039 be162aff bd655472 bea55040 3e997707 3e3efca2 bf4b029f bebc1556 3dee7d1a beb54659 bb30e258 be82e682 bc9437e5 bd9f6b79 3dac2c2f 3f11d3b4 bea45df9 bab249bd bb05d98e bd18c205 3ddbd8da bdb4ce76 bdc1e9e6 bd80c480 bde7a2a5 3d4435e6 3da63e13 3e8b40d8 bebcfcea 3e8f24fa bdc30bdf 3d83d6b3 3eab14fb ba3d24f0 3e20b2c6 be479d2c bc967f09 3cdc1cc1 3d7ef528 3e789618 bd871b70 bb6636ce bc1324a9 be57616b be098726 3d779e08 3ac2f46d 3deb3c80 3de17492 bd484507 beda39ac be379d53 bdf34490 bcf9097d bd023cdf bda0bd7e 3cb8ae7c 3e4bab85 3ad23cc4 3d8f6cf2 bd2c8d2b bc85fb65 bd61dfed bdfe6a86 bd1675b7 39e947ce 3bfb7a0d bdcbdb08 3d061fef be857f56 be27f0ff 3d3abcf7 bd04eb61 3d922cc4 be02d0ac 3cde5f2f 3e4b802b bdbc4683 bd5485c2 3b591439 3b9dcc06 3b89d556 3c709236 3d81a1bb 3cf58ab3 3d35407e bccd3cf6 bd344098 3bbb4c5e bdb6a3a8 3db3e625 3c8bafcf 3d44a63e bdc6ebcf 3a9b3a23 3d85206a 3e04d681 3c4725e3 3e9b5e4b 3d859233 bea328f5 be9b3760 3e38e7e5 be47d56c be2e5237 be3c678c 3d19fdfe 3e9d2f7b bcf5c3e8 bd9ecec8 3db56d2e 3db982fc be07eb9f 3acbdc98 bd440967 3e13ebc7 3de2c455 bd6c96f2 3d8bb986 3e0f3227 3db3b9d9 3d1479b0 bc8061d2 bd15be74 3e3927cd 3e436208 3d90dba9 3c72fc4e 3e279353 baabb434 bdd65c7d 3dfea288 be3c600a 3d8405dd bebe4009 3b038bcf 3e366d1a be023fd8 3e444540 3e58aa0a 3d80401e bd8c70ab 3ac4b992 3e012db8 3eb3bccd 3cd91261 3dc1827b 3e7a3e8f 3e7ac7ee 3d398fc9 3e17ce34 3d339daa 3d0c4401 3e1e348f 3daa2246 3dbad2ef be57ba28 3e7d0702 bcb96370 3e2f7373 3e75d0d7 3abd0e45 be32ecca 3d4f472a 3d84d249 bd873c14 3e76c068 3ace5a87 3e28abe0 bd2c614e 3ac34196 be114d76 3deff109 bc8f0d71 bd149214 3ecff4bd 3b92cc3f bbae5dc0 3e2c5e5b 3d7e40e4 bce91d89 3c9990a2 3d9e9ad6 bdaebd83 3cb49c13 bd6d4e14 3d48fe5f bdfa2959 3ddae80b 3e1bfb76 ba0b813d 3e7ddd06 3d06a2bf bc5b25f3 3e58deb1 3e312cbd 3da6754f bdd33749 3c874c64 3c89f8ea be21ff3c 3c01249a 3cf9feca 3dfce84e be29028a bdd77b8a bdab9272 bd3eb8d7 bddd2250 bb006647 bead4a79 bdc8280e 3e778d2c be5556d1 3da8f714 3cc0e64b 3e0a5f78 3c41d8aa bcb93bb4 be215828 3e911191 bd317d5f 3e1418c3 3cbb4b9b bd221da8 3bcb3874 bdc3e905 3e672854 bc98519d 3ba324a3 bd7d92da be4e0f56 3e483897 bdfa5d48 3e140221 be602e46 bc36e70c 3dec8464 3a589b31 be76a6a9 be8468ac 3d401122 bcbd858b be1843f0 bcf2c78d bca7f789 bdc95428 3e6742d4 3e6d2b2f 3e3173dd be800218 3e29d762 3d665d54 3d0b6473 3d814eaf 3a3c7be4 be3856da ba7f93c8 3dc41468 3e403215 bea24cd4 bdbf3c10 bdfce23c bc9337ae be4ec4d0 3ddf8876 bd852947 3da27548 bef670dd 3da06fa8 3cc55d24 3eab1169 3d7745f8 bc519704 3da8d49a bd1c2893 be093522 be085927 3d10c03a 3b540be1 baebe98c 3e101057 be9c058c 3c62a752 be835f21 3ceb9d92 b8d1f7e6 3cd286c3 bda0537c 3d8ca355 bdc087dc be2608ed 3e080213 bde9ed27 3da1522b bd9b9477 bf153105 bd99da18 3bde92e3 bd834990 be5c3a55 bdab4bce 3c0079f1 bd1534a9 be7b5d5d 3ad96de6 3e269ea6 bd20907c 3d1ffc22 bde8fc0d bded68be 3d9c9d71 be81b57f 3dab977a bd80e5c7 3e01416e bcc07dfa 3da0a76b bdb4584b bdf09376 bc3dab40 bc02dda5 3b8fb0ca bd6a89e4 3e635330 bd961ae5 3dc2a1c3 3d51213a be5c602d 3cffc92a be8a6934 3d53867a bd879c08 bda90a8e ba0eec15 3dc0060a 3cda80fe 3dd2e109 bea664d0 39dd9b3c bec6bbd2 3e40e065 3e114f41 3e175b00 bdf1d983 3e9d2667 bd564b6f 3e5fc6b6 3e29770e 3ea4f7da 3df7007e 3de508b5 3d96b42e b98c3b9c be5b8282 3e24ad1b 3d3a2564 3e5f2174 3e1b1a71 bd388e81 3ea0b849 3e628197 3d181b16 bef7ae0d 3c46433e bdda4b2a 3c204418 be9fc34b 3e4beb14 3c3a5340 3dd7600e 3e82ef48 3e5d389f 3dd12cae bd91b7b6 be7a8269 3ebb195e 3e9dd9b0 bc9b6bb8 bc3d3f72 3eea8570 3e5b2d30 b89efd03 be1ef253 3b1ecd86 3e32ed3f bf1a90d6 bd668a3b be9caa9e 3ea4d213 b9e2814c bd14f15c bd59c3b4 be68d6d6 3e9ac3be 3c954f1d be34904a 3dade5b1 3d17d8be be31e86b 3e6a1bb8 3a33467c bc5d0671 3d4780a0 bd9ab39c 3ef06c5c be4dafc9 3e76b66e bec03a40 be121542 3ed4006d 3a773a92 3ebeb49e be596b39 bcf164fd 3dedb431 bdb07ce5 bc405e5f beb28dd1 3e9144cb 3eb9997b bd6e86aa 3e5a2201 3d8c5987 bca9862f 3ca8ab25 befd9232 3e21192a be86d039 3e5d2568 bb00305b bd0c7168 3ddca1fc bde508cf bc960b6c 3bdde12a 3e3f7ddc 3de68474 be70a0b3 3d477611 3de774e8 bbe1f10b bc82ec9a bcff9a4b 3e22fe5f bd5ac219 3df5044e 3de67016 3e110dcd ba8d274c be4a391a bec0bae3 bccda224 be22b122 3e7e3ca7 be6f7322 bcf1ba5b 3ce38d55 3d63b893 be652a42 bdc08fd1 be84262a 3e0c57de bd9bcda1 3dd776f7 3b5674dc 3e38f300 bd59b106 be36861d 3da3f0d2 bd8fa925 bdaff5a4 3dece0ed 3e4e0d40 3d7597bd bba679a4 3e06bd0e 3da6e31e baa50ad8 3e05130c 3d2b4adb bd6c8e33 bdc48abb 3d19a61d 3c94b4ce be1a780f 3e4031d2 3d84b895 3da512a2 3d787ad7 bd80af97 3e920358 beb9887d 3c5b4fcf be0bdb78 bdf9be66 3ea0d7a4 ba986087 3d4ea4b2 bf033887 3c896049 bac5a105 bda90036 3def11e5 3e440f16 3d5dbe8b bd2084e3 3da65ed4 3d7feff6 3e91054f bdb30832 3dbc44e7 be1d88b3 bc388143 bd397d14 bd07fe28 bb8f3116 bbd4650f 3e8a0818 3e2188e3 bd5fcd50 3ea1b11e bdb2f30e bf2193dc bd20171e be18908a 3a044edf 3daa71ca 3d549af7 3d9910e9 3ce80ed0 3e040b53 bedb32ce 3dd8653e 3db9c411 3e59e804 be61a421 bdfb5f9d 3d6df7d1 3ddf7ab2 3e44cea3 be024f66 bdf4e1a4 3e322ec1 bdee8d62 3ab34c65 be81203c bedd711d bcdf07d6 3dc9015e bbc62173 3d124b7f bce8a62f 3d6235ec bdb46301 bd95383d 3dd720fa bf26184a 3ea4fadb be84cb49 3e985aca bcf77c3d be0e6f8f 3dfc0914 bd684903 3df47bf9 bdd92202 be59aef8 3e410f5e bdd8525d bd559203 bef4d170 beb3b26b 3df0ab8a badea609 bd3a0493 3dd637ee bef1c185 3d9544d6 3eceffc4 3e0d8386 bdcceccb 3e45e69f 3ddf65ed 3d94f615 3c8b5d80 bdf10fda 3e77ef56 bd6c840e 3da93d39 3eec5051 3e8c42be 3e624236 3b01656b bd0c3947 3e30873e be021123 3e3bccdf bddcf5b4 be368653 bdabcbac 3c99476e bda9d192 3f02599a 3e8fdbf7 3de6b80b be510651 3dc7b768 3eac902a baa0dc0e 3de01a72 3ecab5fe be8b4c69 3dcbda4d 3ebf21c3 bde01ed4 bed04cb9 3f3a4e89 be3dce87 3e2d4e48 3d6e7fd0 be809618 39680b64 bd8170da 3eea705e 3aa0ef09 bc84ce92 be1464a9 bd39a784 3dd1d3e7 be2cff90 be740f9d 3d80e8e8 be38af82 bcbfe02f be10f0ed 3ca89d77 bd837eca 3ec91617 3ce45765 bd002038 3a454096 bd0a914f be0d5bb3 bd286b22 3c76b703 bc53f462 be592bd0 bd86251b bcac878b b9975d09 3ded3a24 be8b5cae be9f6f3e bbce4275 3d7bbe0a 3c9a0298 bbc63e3d 3d0e93d7 bde74817 be4841ba 3de2d9e7 bdba25cc 3d2de11d 3da1ed00 be149c3b be8fcad9 3e383904 bdc8977e bdfca0e8 39e2047a bbb9f63f be9af937 be587874 bd098a29 3dfda94d 3e2a9a72 3d4c8b5e be42f13e 3e9af83c 3c14e2d4 3da65b38 bdc2b7b6 bea9c5a3 3e81f11f 3c07e185 be380baa be4c53c6 3e6e2ef9 ba527717 bdacae71 beaf1cdf bcf4e197 bcfa3544 bd95cb13 3e15715d 3e11199c 3d88d6df bd14f829 bde1717c bd230d42 3d34954c 3d70e522 3cb38fa7 bdb2b67b b94ecde4 3d8582e2 bcbc83af bf04a374 3c656493 bd71fa88 bd9db141 3e24464e 3f1463b1 3d90c77f 3dc4750e 3e9722cb 3e3de87f bacd30b7 bc18379e 3e3a7f7a 3dc0500c 3e64a79d 3cf93aac 3c94e53f bccbd8f4 3d855c6d bca6c6cf 3e22a804 bebaa0ea bcaeac22 3d7adc20 bdd1b463 ba191634 3c6e6881 bdcab8ba 3dffd7e0 38667ee1 3eb209ce beace0c9 bb01cebd becd22c7 bdc0a69e 3e1918f5 3d0d91e6 b9b95b61 bd1435fd 3e199c59 3dc524e5 3e42ba86 be9718d1 3f084f0b be1eac8a bb42f770 be2e0199 3e463d36 bd15a63b bc8b295f bdbef9dd 3eb81d06 3db45f16 be091065 beb78dc9 be02bf76 be8f0b64 3c0d2419 3a8827b2 3c0151d3 3d3c7287 3ccaf5ce 3c8c488d 3d8d68c2 3c9608f1 3da60796 3d8c4604 bd3ce351 bc8e9425 bc223887 bd6d6ead 3d34d5cc bdbf8da3 3cfde7bb 3d16b816 3d721463 3c2af930 baaed5c4 bdef369e 3d2dc400 bd80d074 3d6aa194 bd3cce79 bd998c5e 3daa9d0e 3df263ff bd9b1ceb bd33898e 3ca95abc bc3ee8be be175f66 3dfc839f bc8fbf8e bc2d9ee4 3dda40b3 3da9e785 bc25f6f4 3c35431d 3da57f63 bd4ef3b5 3da580d0 ba818386 bc02b266 bc286865 bc8f6998 bca0863d ba92c327 bd9c81e3 3e359da5 be4fd0b4 3ece29fd 3e14a433 3e8c814b 3e779b93 3cb93f3c 3da51a41 3e451b4f 3e418798 3d24b85c be75473f 3c5c9ac8 3e547f6d bd6e68c3 3c2b8ac2 3e115d56 b9a4e724 3e0f9a41 be14e464 bd505f7c bea7df9c be71b81d bdcf7bb8 3d839989 3dbf7a33 3c0d6577 3e06ec55 3e366b8b bd9e6b51 bdd28896 3ee5da3b be1274a3 b8853d55 bdc49e3c be4d6c4d be0ad4b4 3dbabc0a 3d4d8569 3f26fb9b beb1b194 be442fca bf04ffea bd87cfd8 3dbfd1f2 bbbbfb45 39b71af7 3d58885e bd61235b 3cbde93f bc573a88 bd3e2465 bd426836 bd3b6d1e bb5a3c14 3d3d7736 3e874357 3d62714d 3a62bbf6 3e8f0393 3e70ea35 3d305c65 3dece79b 3d8bf645 be46d8c5 3a401934 3e0162d8 3baf90e7 3e37f976 3dbf5cc1 be8afe94 bd1f0bc8 be486c23 3e239d11 be54ee9d becf28a6 3e0a0220 bc103d06 bf5b3bf6 bdeb38b7 3de45189 bbd21502 bdb7bd9d be1e1880 bceb0330 bd166912 3d2f7ff8 3df54464 3d0aaace 3de9dfab 3db6b02d bcb58c13 bd0e189c 3d4a19c0 3a1f3b8d 3d1d6fbd bdb62081 3ca3da5d bd03871b 3db0ea24 bd8d1854 be1c97ec 3e7dac36 bdade907 3e11ae8d be16631d bd54d944 3ea92a0a bd8698cf bd89237a be8db133 be0f7938 bdd395df ba79671a 3d844fd9 3e946fe8 3d613785 3e22e376 bc2d258a be9a9f2e 398db954 be24be92 bc8da9bc 3e247e3c 3e3ab08a 3d872721 bae55950 bdb0c3bc bdf9750b 3a463231 be14c258 be7b40f3 be2a9af0 bb616c1a bd0be21e 3e3e8a4e bca01cf1 3e55e5d2 be363e31 3c9ae268 bd97b15b be9dc52f 398e2d51 bbb2572b bcfb41ca 3c76f1f4 3d976eec bdae642e 3e8d8151 3dfd5110 bcdbdb1f 3d59e8bd 3e92799b bc744aa8 bc122bf3 bdda23e1 bea5951d 3dd55676 be003395 be3fe173 3dcea98a 39df40df 3f063371 3e048912 bd70a1c5 be3302fd be080c72 3de44d21 3e5eca9a 3d8539c5 be11a205 3eafd50a be50dc84 3ce03e9f beb2473e 3f159a14 3ba67548 3cb20adf 3d2720c1 bd2e1499 3e741cd9 bd27dc2a 3dbc0ddb 3d9b47cf 3cb0625d be2f31b7 bd64449c 3c05fd0e 3d179db2 bd1828a2 b9e06bc3 be5a5c61 be6956b7 bbd4e4ff be45440d 3ce4cce6 3e7705d8 3cf6556c 3d268158 3c47e933 bddb3aea 3ca4c15f be09aa77 3cdf3f58 3b77ae76 3c5f1090 bdfb126d be790889 3dc073ff ba41b089 3df40541 be2bb86c be6f2381 3c2b8999 3c0afc8b bf29d1b3 3c94bb76 bd76be85 bdc675cb 3db5bf67 3d9c00cd 3e1fc1a0 3d0e6429 bdc4951c be6bced5 bc0e2bb8 3df86da5 bdb64360 3e0755c5 bcd67e95 3e713de4 3deaf00d be91a3ff 3d53affc bc9deee7 bd6e349f 3ddb950c 3d80f4fc 3a83a89f 3e055a8e bc899065 bbe5105e bcbf9b77 3e73e87e bc99511b 3bb69bb7 3ded440d 3e0bdccf 3d870d42 3d9a5b78 bd2fdd0e 3e36f780 3c9ad372 3d792d1c bdc2480b 3d46b83f 3e1e3494 3ab0e6d2 be9793a3 be212b84 3e1852ea 3e829d0a 3cfad95a bdb80b0e 3e670830 bd5b9ae0 3d3886fe bb4cecc2 3e7dde48 3b686caf 3da1a4e0 bdb56c25 bd23331f 3af2917c 3d073796 3e17ff85 be045d6d 3d814f63 be1667a0 bd993de0 bd841d57 3dfa7d6e 3e061608 be258e50 3e9ea54f 3d7cb779 38829281 3da93bd9 3d859e6c 3d32ae2f 3d002fa7 bc6aeda8 bdf43259 3dfaa547 3d41d1ee bde81051 be165de0 bd204cd3 3db096c4 3da14eee 3ca61e47 bd91545e 3d3be6d1 bd880fb3 bd5ccf2f 39d404de bea7e95c 3b32077a bdd11d87 bd6bfcba bb90da17 3e198d62 bcadacd7 be9d29bf 3e0c4485 3db62ab7 3da06255 bd1eab7f 3e1bf135 3e5802d2 bd5e415e bbbb9a57 bcf68f12 be172e61 b9d41d42 3d2361ed bbca6186 3d3ae0ed bbb6e034 3dc140e1 3d55ef4b bd6a7475 be1bb769 3d9d6e4f 3a7cd67f bdd692ae beadf80d bf026b75 bd0fe33a 3e98c332 3eb6e638 3ebf645b be8d2a6e 3e85b599 3dc833ae 3eb8ecf8 bee0afbe be33dbed 3ea426e8 3ec6c0d2 bbe00a93 bec15a17 3f17fde0 38c27ef8 3c50854c bb3c34c9 be8709ef 3e3824d6 be734f50 bedbf444 3df2bfe6 3d9988b5 3eada155 3ee16b75 3c247b18 be65be6c bd9807d9 bba58ca7 be77a32d baf5d1f2 3ef9f660 be698a8a bed8af1d 3de0bc9f bdc94181 bd92e783 be03f6a3 3d82672d 3ed65bfc 3dad22f6 3e7f9875 bab383fc b9c5e096 bbba4ca5 bca18033 bee483de 3e9f00ed bef5c5c6 3e9ac5af 3d37a922 be98e37e 3e1e64c3 3e805ec2 be889a79 be077dee bdf17625 bf02e460 3efa345b 3d4b70fa bf10452f be5191cb b81e75da bd60df15 be953a37 3bfb990c be779d06 3e0a3bea 3e143272 be244fd2 be7d2ac9 3d6462cc be9c08c1 bd07593e bdd62e51 bce931f7 be1c7407 bc0e2386 3ca1c988 beaed083 3d795987 be0ca3ca bdaec711 bd41a722 3e8d2ac8 be066175 bdbbefbe bd8217fa be48a9e2 3c4efca1 bddb6f48 3ae9c8cd 3cd2acf9 be1a1fb0 bdffb17b be132102 3d8ad4ab 3e484679 3f04eedf 3e51bf74 bec567ee 3b1bcddb be169227 be76255a 3f0d0c1c be525c31 3e1443cb 3e9c641d be6c0a1c 3d6c0b0c b9909d11 3adb904c bd3ad204 bbad54a8 3dc9cc47 bdd3f3fb bf791366 3e1f9cef bca3c3a9 3d1f3622 bd8166ce bc50a6ea 3e90326a 3c95283a 3e8b2296 3dfeb7b9 bc7138d6 3e62d08c 3e11d14f be7856cc 3d6c80bb 3e34c23f be0492e1 be834730 bf1c8e5e 3dc91d75 be686334 3def74bc 3ed35d96 badad158 be1e1cd7 be07cecb 3d9881e4 bdcf5ab4 3d6f70b9 bdc9a6cd bbb1b397 3db2597e 3e4b776f 3e869b83 3e5541b3 bc4799e2 3dcca29a bf2f392a 3df4513a bcd575c0 3e3919c7 3c153fce b9962602 3e49be3a be140c47 be527d3c bd495351 be034d47 3c625cdc bd84b4a4 bc920b04 3dc67c0d 3e2df3b3 bd3d070a beabbe2c be2d10cd 3d660966 bcf03632 bb9a1755 3dfc0a7a bc8ec7da 376673e7 bdc1311a bcf5dd83 3d67a468 bcf14cd5 3d39d99c bca9f2d8 bed54982 3d674a78 3dc49b9a 3a988fa5 bc92cc1a 3e90c0ed bbfb460c 3dad494d 3e4246e5 bd94689e bd257745 3de34d6c bc84beab 3e911dfa bd4ae1da bda2a60e 3dbd9e1c bdc8ce55 bd18e506 3d3d48f2 3e84c6dc 3df8a589 b9d4420f bed05bb5 3d878c0d 3da8f1e4 bb1643ae bdbadcd0 bdcfd946 3db6103a 3ecc546c bd8ba886 3cc7790a 3c34e6fb bdb6220a 3ecd962e 3d9bf508 bd330b8a 3b139bcc bd8123a3 3cf9af8a 3d2cc830 3cdebdf3 3c35e03d be1b6fa9 ba974d82 3c581e8b bdeafbab bd480716 3d0e3893 bd1bf751 3afb4ff8 bd911efe be1d56d2 be17f548 be2afdc2 bde24a8f be2323a1 bda02357 be7f51e5 be4f2ce0 bc6575b9 be166e6d bdc6f481 3d076786 3ec85a97 3cf56bd4 bdc168cf bdfc2033 3d5e9ee8 3a43b32e 3e016cfb bdbe928a bd7572bf 3e6f3521 bdbe6dc8 be203574 bc2e9e84 3e29d42f be62bf40 3d587325 be2a3bd4 3e125379 be33a180 3e6dc1d6 3d5a35aa 3ccc52e3 bdf0a754 be04f699 3da7edb4 3dd5f819 3d276c61 3ed24cd1 3d4dc447 bdaca4e4 3e5f94ec 3ddf0976 3e9e99aa 3c94d763 39ef3b24 3dabd148 3ed162d0 3e5a023a 3e4386ff 3e97049a 3ca37965 3df9f092 3eea961e 3dc3cb23 be4a5120 3e248072 3de68df5 bd942452 3eb7ace2 bd1f951d 3dbfc089 3ea81d4e bd4de740 3abd5ef6 bddc03d2 be41fac9 3c57ea26 be96a1e8 3d81257e 3e2c4058 bd243ebe 3d660a9c bcfca5ed beab4ca5 3e9502ae 3e752421 3e08c083 3d474220 bb8e754c 3d4040f9 3e5257c7 bdcce273 3d109e31 bcee908c 3dcc6211 3f306831 be5f9249 be98b112 bd7cca8b 3d72092d 3dd59a29 bd170790 3aad2c1b bcefe1a5 be234ede 3dd5c321 bd30565d bd425868 3e1d6d3b bd04de18 be3450c3 3e7256dc bb16aa2b 3b2c5a63 3dc61ff8 3e681f70 bd830796 be251b30 3dabe0fe bdc7791b 3d4480be 38c5ec3a 3d460cc2 3f05ee38 bd2a8c50 be389d99 bec4540f 3cc7664e bddc7275 3ddbff01 bd38f76c be9cceba be0153d4 3ee5748e bdc746a4 3e1d3d08 bd4492cc 3cad3681 bd8d2ead 3cb7a148 3e7618cb bd5363fd 3ccbea28 3ef75c01 3ebafb22 3f09fe36 be03f1a4 3f249eac bbd76530 3eb0a8e1 3acd79ec 3c159a76 3e96f3e9 be1162c1 3e5089a0 be6c4518 3f6f3eef 3d4e9e95 3d9cdf6e 3d152ac2 be7583f5 be3d518d bc05b63a 3d8676a0 3d90fa6a 3e652ae6 bd789e03 3d630053 3ea260e3 baa5445c bcd8a09b 3e09d519 3d24d50a bd88354e be180849 be861496 3e767634 be16323e bbe9d02f be4711bf be3b3699 bcf89826 3dd50232 3a6e73ae bd45a556 3abb85ee bd517b45 bba5c7b9 bda6fd7d 3d89ed4c 3c8880bf 3ebdb860 3e4315da 3e16119c 3e53ef62 be0179a0 3e82ebab bd80e582 3a48da53 bdde55f9 3d883dcf bcce475b bdc26052 bcb04dfd be14a628 3d957735 bd5915b7 bd2b90ea 39de36eb 3c9728b3 3d0babc6 3c2d91ae be336b1f 3d3e56f4 3d5391b7 3c797e71 3d6e5c36 3a4478a0 3f1ee999 3e52c2a5 bd83e6e8 bbf006bb 3e59c97e bd81c747 bca2a0dc bdd26b45 be80ca56 3d9a634c bc16e444 3e6927d4 bec46675 bed92e1d 3c856e05 3c2d02f3 bd610eee 3d944890 3c51414b bc4e7c54 bdad4839 3c31878b bcb28582 3de65c72 39d4c658 3db53392 bd936294 bd20cc64 354a41de 3d8129ed 3dfc131d 3e9d172c 3e5d052a bdff64a6 3d998fb9 be2d355d bd844f89 bef9a0c9 3db10f04 bf170f85 3ebb3ed3 bcc5a88c 3e3cf44c 3cd73810 bd7995b9 bd11ea68 bdf1ec04 b8acc64a 3c0d50d2 3e89d654 3d57fdf7 bcb38bef be37b9ce 3eb18420 3e01ebfd 3cdc7081 bda8faf0 be3dcd4f bd0bb8c4 3d59fd6a 3e16adf0 3f008212 bdf2500d bc97e81a be57819b be95121d bc429139 3c4a2662 3e1e81f0 3dfa8a68 3ed1f597 be84db7b bd2e2690 bdd28517 3c75cafe becb150a 390ee1cc 3d2edce9 3d995adc 3b273848 3d6b9bde 3d30ed36 3df4fce8 3dd0bd09 3bc00737 3d5eb508 3e9db94e 3e0a0149 3d073bc8 3e0eba60 3d5b21ae 3da41ef9 bb90bc7b 3b3d7a99 3d84d624 37977ae9 3dafcd49 3ae7d2fd 3cbf7751 bcc222af 3e8df00e 3d4bd0af 3de12750 bce7c6a3 bdefea01 bddf8631 3d502bc7 be15406f be0b959c 3e8c49d4 3daa4eab 3aa3e3bc bd6204be bb5c8716 3deac9d3 3d91b01a 3e4cd2e3 3d5d8ff3 bca1bbbc 3e690854 be0bf44a 3c983cb3 3e40a684 3e545dd6 38366c3d be186ab2 3ee98cca be32ea0f b9bfa634 be291f8e 3c9c3576 3e44a986 3bc4593f bdee18a4 3dbced0e 3c882313 3d79432e be056fd6 be7c95dd 3d786067 bc70a36f 3e166820 bd4fa018 ba96a526 3d2a0b29 bdb93718 bd8f3597 bba4f974 3c2cc2ab bdd3cdfa bcc36830 bd8a526d bb820d34 bde6e35b be39f5e3 bd2674b7 bd35ef3f bdefb41c 3ec2bf5e 3bb45d40 3b3b8bcf be881c59 3e008581 bc64acd1 3de93514 3ea130e3 bd9cb654 bde2e74d bd98bab4 3ee427ba bc0b7b20 3e069911 bb261202 3c866fd3 bc0d8558 3e301a33 be6e07d2 3d5f2191 3cbea895 3e2c7d07 bd7e530f bdc99e10 bcb6a607 bd39e126 3d93b16d 3d85ccca 3eaa704b 3d992fca 3df19e06 3e077f9c 3e89f68a 37861008 bdc5cb56 bd64920a 3cec83ff 3e8624a1 bc2c20a3 bdfe4618 3c066cbc 3cc9b7f8 3dbd8d60 3e4f4590 bb8311f3 be86d320 3d4d05d6 3e4fdda5 37a50f64 ba2533b2 3ddf0160 bd4e899e bc7722ab 3da2f024 bd82f794 bb8df94e 3e2533d9 be30e8f5 3d14ae07 bdbd8582 bdcc4708 bc11e561 ba87069b 3e0125b1 be1041b7 3ee157f7 be788c20 bde632e6 bdcd202a be2043ed bc575704 be219e96 bdaed4b3 bdfd05b5 3ebaee9a 3e7fd482 beca4740 bdb2a89d 3deb12e7 3e11e15f be23f152 ba5b12af bbed4201 3e99ea3d 3e27fa8f 3e1f8a3b bda771a0 3dd8e752 bc84f574 bc22cc31 3bb0ca61 bdbf8781 bc854d73 3e1273b3 bde49be1 be9b7f2f 3e49f69f 3c2183fb 3de1f3df 3eadab1c bdc78ec5 3d17045f be3209d3 bed36b5b 3eacc487 3eb4ca1c bd85ef9f 3dfc102d be047435 be7c0671 39992127 3c2819a3 3cc46be3 bd97290c 3d56a17c 3ea66dae 3f04d832 3e9df5b2 3dc0ab63 3e458431 bd8f156b 3e8971d5 be1e5bbd 3be10354 be0500c2 bcf7104d 3d65dfca bd196e70 3e98ae1e 3a614e9c bd5df710 bdc7f5b5 be154bdf 3d4a9ec3 bd01bc8b be65d05f 3e17edb4 bceab457 3e22a35d bbeb6175 3d907413 be0345c2 bd5c9410 be885b46 bcf1f75f 3ba0506e 3e93e4a3 be11934f bd262380 3d3bc2f7 bce679fc 3d5b8e4a be2cfe7b bc0820ce 3e3332a9 3de989b9 3ea62ad5 3e1f1585 babe9397 bc72451e bd93685d bc2e5b06 3d864c6e bd8d4583 bc83e798 3d2dd175 bcf13a50 3d4c5630 be123f00 3dddf0b8 3e1258c3 bdd6e70c 3dde5394 3e1aa66b bd0c6fa9 bd76daeb be1957c6 39cece6e 3e4cf3d9 3e8e6028 3d690ed4 3d938a7a beccc4a8 3d8c402a 3d1cbdc3 3d0c7ff2 be423382 3e0cbbf1 3d42f7e5 3b24947c bde5d50d 3d9e8eb9 bda01369 3ba612cc 3b39ec3c 3d76015a 3dcd43d5 bddfe683 3e3de012 bd640d61 bb54f4fb bdcef3db 3ea16af8 bd8bd9d8 bcf063ec be1cd8a8 bb07ec0c 3d8c2800 3da5cb26 3db5f36e 3dafe85a bd29f6fa 3dcac3dc bd659257 3e255fe9 3cf74478 3da11ef2 bd4a00c2 bc8d467f 3de71886 3e024864 be0e99e5 bcc9134b 3dd25cbb bd2542b0 3b29ff2b 3c473897 3dc0581f 3c50a287 39da34ff 3db78fe3 bd66f445 3c8b48cf bcf76054 bdb10ee4 3e74adf2 3ddada0f 3ec53819 bdb5a3d7 be14b1a7 3d1407af bb86a9de bd0d6c1d be1ba881 bdb6a40e 3d8f9a6d 3d79b340 3d1feb65 be14217b 3d10c4dc bddfae36 beaa6114 bd92042b bdcff620 ba7a31bc bc8b3679 bd5b40b9 bc571ecd 3e133865 3d364e42 3cdddb04 3bfde816 bdf15477 3bbc9a53 3e84fd7a bd8d9db6 3d199df6 be47d9d5 3e8ec317 be02f133 bde53f96 3d5fa20f 3bb16abe bae59000 be969355 3cab42bc 3cb42a20 bd141ad9 becf6546 bdd9a601 3e114a11 3e3788fb 3d850200 3d0a800c 3d809c8b bd0f9362 3e9eccaa 3eb3578c bc0a1a47 bc03ac30 be4e28ef bd90c53c 3e300115 bd0c6c74 3e8403bd be17ac17 bdcff8f5 3e22fea9 be9f8057 bd1801e5 3df9d511 3dacc281 b8a7a53c 3de4c3ca 3e28d820 3e156687 3d1ef9ca 3df47785 3daef80b 3e088c50 3db9394e 3d11f998 3d766ad5 3db87870 3d85a3f1 bcced40a bef96ad7 3ea4b1b3 bd849223 3de1bd6c 3e7dc365 392d5ca9 bc6cbd9b be2f5cb3 3e146ab4 bce17d32 3e5dcaa8 3de5e892 3e61d60d ba923838 bc45378b 3c39f274 3e5d83af be1ea4d2 3b06c5ed bde19f36 bdaba51e 3ba187c3 3d724460 3d47f5a3 3e96e810 bdb276d1 3df6286f be4be810 3d2c7f2e 3dabbaad 3ce84818 bdb8983e 3e5a37ee 3e82b70c 3a8c4521 3c4ead9b 3ddfc682 3bef8525 bb734f02 bd1d8086 bd82e06c bd0eaa41 3e02ae77 3da34a73 3d2c6298 bd7fdfe1 3c9452d2 bd6127f3 bd9e61db bbb39b4a bd391dc5 bcf1aeb4 bc280685 bb3a032d 3ea2379e bd85c2d5 bd9eb233 3e0797a8 be2f7844 3daa99aa bdf9bfcd 3c5bcc02 3b092013 3cef6787 bd297f64 bd71e049 be458afa 3e18a4df bccb9c04 bb679d45 bdf83f3e 3c86ee86 ba99d59d bd641fb4 ba62e57b bcc402f8 be16c624 bd8edbe8 3c514f38 bd4f3143 bd0e93dc 3c4c3c7e bac7e95f
backbone.blaze_.3.conv_pw._batch_norm.weight 48 3dcd1305 3e1151af 3d91f59e 3e2116aa 3da875f8 3db4897c 3e84afc2 3e931637 3e99eb1e 3e892a80 3e817fb9 3db6afab 3d9b39af 3e6d31d3 3e47e44e 3e432544 3e8383fc 3e7b3165 3df3d6f3 3d656206 3e2e800c 3e1033ee 3e07d2d8 3e631297 3e600d3b 3e2dc6c4 bdda0583 3e2ea71e 3e7448bf 3dae94cf 3e9866d6 3e1fc158 3e937e23 3e9f3f93 3e6962ef 3e117887 bdfe430b 3e7cbdfa 3e72e5b8 3e1350e2 3e380705 3e246b5c 3e519a41 3e45ec2e 3e79fc70 3e244799 3e6db184 3e161658
backbone.blaze_.3.conv_pw._batch_norm.bias 48 3ce657ab bd0f9ab6 bb2e98b8 3dcaf4f4 3e205bc9 3e0b7f04 3e254812 3e0f3a14 bd8056f6 3e3969a4 3e027713 3ba37d20 3e4185bf bd8fbe48 bd25388d 3e6483c9 bcc16711 bd42287c 3dc81c10 3d2461a5 bdf96087 3ec7643e bb30c2c5 3e30471b 3e74ecee bda37d97 3e317677 3dfad6a9 3db728fb 3e80b758 3d867548 3d37fa25 be2318d5 bcaa3fe5 3db8c01e 3d926683 3de4eb48 be8aff56 3e37fe29 bdde60cc 3b53bcb7 3eb33798 3e033a72 3e64dbe5 be006ac3 3e2313ff 3cc85e15 3e0e088d
backbone.blaze_.3.conv_pw._batch_norm.running_mean 48 3c30d09a bde4f67b 3c7ad86f 3b88d35b be6e05ea 3db188bf 3e49b0d0 be5df157 bd0a2f5a beb7a7f6 3e4cca09 3e3ed9a6 be37d332 be08d310 bec369df 3eec38db be942905 3d1cd048 bddd32f2 bd07bede 3cabfd60 be608990 bd517bd7 3e11afa8 be25fee7 3e15f135 3db75391 3e98a6cb bf2c5fe1 be71dfb2 bec2d75b 3da87ecc 3e8d576c 3edcb5f4 3ed6841b 3e2aff95 be10b0c7 3e4e159d 3e94d24a bca5ef0b 3e896a43 be61e70a 3d893341 3e44ad54 3dcdbcdf 3e4fde50 3c246adc bd29122a
backbone.blaze_.3.conv_pw._batch_norm.running_var 48 3c0b7f83 3d8def68 3c2a0765 3d9f7c8c 3cb012db 3d913e84 3e0c2c23 3d3e931a 3cc8591e 3d5adaad 3e09abbb 3d6ff98a 3d10a614 3d9c4c94 3d2859ca 3ddee1fe 3d7a5d17 3d8819ac 3cf05dfa 3c1e29e6 3da99aaf 3ce54e24 3d4bc4ea 3d4c0c63 3db3f2da 3d21ae60 3c61cc44 3dd6eacd 3d581d83 3d8d7c26 3d481e05 3ce2a7b7 3d34acce 3d757a53 3d8a6c3f 3d2d6e9b 3c8999c1 3df7779c 3d9369f8 3d31fa47 3c90bb12 3db4d2b6 3d574fb6 3cbf55ce 3cb4e50f 3d09a037 3df6af4a 3bf4867e
backbone.blaze_.3.conv_pw._batch_norm.num_batches_tracked 1 00000000
